<unk>	0
<s>	0
</s>	0
<PAD>	0
<UNK>	0
he	-0
▁t	-1
▁a	-2
in	-3
▁s	-4
▁the	-5
▁w	-6
ed	-7
nd	-8
▁o	-9
re	-10
er	-11
ou	-12
▁b	-13
▁h	-14
▁and	-15
▁c	-16
▁f	-17
▁m	-18
it	-19
is	-20
at	-21
ing	-22
on	-23
en	-24
or	-25
▁I	-26
▁d	-27
▁he	-28
as	-29
▁to	-30
▁l	-31
ar	-32
▁of	-33
▁in	-34
▁“	-35
es	-36
ll	-37
an	-38
▁p	-39
ro	-40
▁th	-41
▁n	-42
le	-43
ow	-44
ut	-45
▁g	-46
ad	-47
▁T	-48
id	-49
ic	-50
▁e	-51
▁y	-52
ot	-53
▁st	-54
▁be	-55
im	-56
ith	-57
ent	-58
gh	-59
ur	-60
▁wh	-61
ly	-62
om	-63
▁with	-64
▁was	-65
se	-66
▁you	-67
ve	-68
ld	-69
ac	-70
▁it	-71
▁on	-72
st	-73
▁his	-74
et	-75
ver	-76
▁re	-77
▁u	-78
al	-79
ay	-80
ir	-81
▁The	-82
am	-83
oo	-84
ght	-85
ri	-86
,”	-87
ion	-88
▁me	-89
▁at	-90
▁S	-91
▁her	-92
▁for	-93
▁H	-94
▁that	-95
▁my	-96
ter	-97
▁as	-98
▁an	-99
▁him	-100
.”	-101
ain	-102
▁sa	-103
▁A	-104
▁had	-105
li	-106
▁but	-107
ce	-108
▁ha	-109
▁C	-110
▁k	-111
▁sh	-112
▁not	-113
▁she	-114
▁we	-115
il	-116
rom	-117
▁se	-118
ch	-119
all	-120
▁r	-121
ked	-122
▁B	-123
▁is	-124
ct	-125
ast	-126
▁from	-127
▁li	-128
ke	-129
her	-130
▁W	-131
▁said	-132
ould	-133
▁de	-134
pp	-135
▁M	-136
hed	-137
▁kn	-138
nt	-139
▁do	-140
ess	-141
?”	-142
el	-143
ill	-144
▁su	-145
rou	-146
our	-147
qu	-148
ard	-149
▁up	-150
▁ch	-151
ame	-152
▁int	-153
ss	-154
▁sp	-155
ich	-156
ff	-157
ag	-158
▁P	-159
ong	-160
▁which	-161
ell	-162
▁ne	-163
em	-164
▁whe	-165
ack	-166
▁so	-167
out	-168
ie	-169
and	-170
ore	-171
▁He	-172
▁v	-173
ind	-174
▁F	-175
ord	-176
ist	-177
us	-178
ome	-179
▁loo	-180
ap	-181
▁into	-182
▁G	-183
▁by	-184
!”	-185
est	-186
▁ro	-187
au	-188
ation	-189
if	-190
ant	-191
um	-192
▁al	-193
ace	-194
ect	-195
▁ab	-196
art	-197
led	-198
ber	-199
▁ag	-200
ble	-201
urn	-202
▁have	-203
▁or	-204
▁out	-205
very	-206
hing	-207
▁fl	-208
▁con	-209
ig	-210
ood	-211
pt	-212
ass	-213
▁le	-214
▁were	-215
▁L	-216
ous	-217
▁ex	-218
▁all	-219
ue	-220
▁know	-221
▁sm	-222
ight	-223
ol	-224
▁wor	-225
▁R	-226
ul	-227
are	-228
ust	-229
ra	-230
▁cl	-231
▁Then	-232
▁are	-233
un	-234
ile	-235
▁ey	-236
ck	-237
ers	-238
way	-239
▁this	-240
itt	-241
▁bl	-242
▁who	-243
lf	-244
ound	-245
▁then	-246
▁over	-247
ate	-248
ine	-249
op	-250
▁ar	-251
ered	-252
▁man	-253
▁mo	-254
▁when	-255
ang	-256
▁am	-257
▁go	-258
▁looked	-259
▁again	-260
hat	-261
ance	-262
liff	-263
ure	-264
ry	-265
▁can	-266
ings	-267
lifford	-268
ide	-269
▁turn	-270
▁E	-271
--	-272
wn	-273
ite	-274
one	-275
▁one	-276
ud	-277
king	-278
▁Clifford	-279
ried	-280
self	-281
▁rep	-282
own	-283
ep	-284
▁j	-285
▁no	-286
▁eyes	-287
▁about	-288
,—	-289
nder	-290
ther	-291
▁there	-292
ive	-293
ear	-294
▁It	-295
▁came	-296
▁hand	-297
ice	-298
ons	-299
ort	-300
▁tim	-301
▁O	-302
▁them	-303
▁lo	-304
▁pl	-305
▁com	-306
rough	-307
▁down	-308
fter	-309
▁too	-310
▁Y	-311
▁any	-312
▁through	-313
ge	-314
ild	-315
ved	-316
▁gl	-317
▁_	-318
ity	-319
▁fo	-320
▁qu	-321
▁face	-322
▁your	-323
▁would	-324
os	-325
res	-326
▁ta	-327
▁She	-328
▁like	-329
▁they	-330
ven	-331
▁ac	-332
▁un	-333
▁now	-334
te	-335
▁tr	-336
ated	-337
ment	-338
▁pass	-339
fore	-340
▁did	-341
▁door	-342
▁will	-343
▁pro	-344
▁been	-345
▁head	-346
▁could	-347
ew	-348
rent	-349
th	-350
▁D	-351
ittle	-352
ened	-353
▁what	-354
ft	-355
ru	-356
air	-357
▁little	-358
ks	-359
reat	-360
▁dis	-361
▁see	-362
▁back	-363
▁stre	-364
▁before	-365
▁co	-366
▁tw	-367
ott	-368
▁thou	-369
by	-370
▁J	-371
▁sc	-372
▁Hast	-373
vi	-374
orn	-375
pped	-376
▁time	-377
▁turned	-378
pl	-379
▁their	-380
▁po	-381
ject	-382
▁beg	-383
▁sat	-384
▁other	-385
▁very	-386
ink	-387
▁after	-388
hen	-389
ched	-390
▁sil	-391
▁br	-392
▁op	-393
▁sw	-394
▁wind	-395
▁Hastings	-396
▁N	-397
ish	-398
row	-399
▁mom	-400
▁moment	-401
ress	-402
▁away	-403
ire	-404
ull	-405
right	-406
ab	-407
let	-408
▁Trent	-409
ng	-410
ick	-411
ree	-412
▁St	-413
▁thought	-414
▁mar	-415
enber	-416
▁stud	-417
▁under	-418
▁Mr	-419
ross	-420
▁say	-421
enberg	-422
▁never	-423
utenberg	-424
dd	-425
▁vo	-426
▁don	-427
▁off	-428
▁seem	-429
ign	-430
▁long	-431
▁some	-432
▁fe	-433
ious	-434
ling	-435
▁cried	-436
▁should	-437
▁every	-438
▁if	-439
▁per	-440
▁wat	-441
ark	-442
ount	-443
aw	-444
mer	-445
—”	-446
▁im	-447
ward	-448
▁Pro	-449
▁its	-450
round	-451
▁more	-452
▁must	-453
▁Gutenberg	-454
iss	-455
ron	-456
ted	-457
less	-458
▁arm	-459
▁lau	-460
▁last	-461
▁went	-462
iz	-463
▁us	-464
▁only	-465
ished	-466
▁while	-467
▁window	-468
ies	-469
▁dre	-470
▁old	-471
▁saw	-472
▁here	-473
▁than	-474
▁street	-475
mb	-476
anc	-477
irl	-478
ence	-479
omet	-480
ellow	-481
▁white	-482
▁Project	-483
cl	-484
red	-485
ally	-486
▁own	-487
light	-488
▁began	-489
▁voice	-490
od	-491
ak	-492
ook	-493
▁girl	-494
▁smil	-495
ave	-496
▁how	-497
atter	-498
▁cour	-499
▁heart	-500
co	-501
ps	-502
lli	-503
ose	-504
▁Th	-505
▁cont	-506
▁upon	-507
▁V	-508
▁bec	-509
▁day	-510
▁work	-511
▁seemed	-512
----	-513
▁knew	-514
▁light	-515
▁somet	-516
▁passed	-517
The	-518
age	-519
ied	-520
ret	-521
aint	-522
owed	-523
▁But	-524
▁ent	-525
▁sun	-526
▁took	-527
▁gr	-528
oris	-529
▁spe	-530
▁unt	-531
▁rose	-532
av	-533
ars	-534
ove	-535
per	-536
able	-537
▁cur	-538
▁ter	-539
▁wal	-540
ently	-541
lliott	-542
▁where	-543
▁1	-544
irst	-545
▁two	-546
other	-547
▁stood	-548
▁Elliott	-549
ath	-550
ung	-551
You	-552
ade	-553
ake	-554
▁en	-555
▁app	-556
▁Boris	-557
arm	-558
low	-559
▁ke	-560
▁first	-561
▁until	-562
ne	-563
sw	-564
ene	-565
▁rem	-566
▁think	-567
hy	-568
alc	-569
oke	-570
▁ob	-571
▁wa	-572
ieur	-573
lied	-574
▁call	-575
elby	-576
ilde	-577
▁tre	-578
▁West	-579
▁read	-580
▁Selby	-581
▁Wilde	-582
▁asked	-583
▁myself	-584
oc	-585
ach	-586
ank	-587
▁pa	-588
▁ret	-589
ier	-590
ise	-591
▁You	-592
onsieur	-593
▁himself	-594
yl	-595
▁pe	-596
▁ra	-597
▁des	-598
ather	-599
▁When	-600
▁among	-601
▁shall	-602
▁something	-603
arr	-604
ary	-605
end	-606
leas	-607
ness	-608
ouse	-609
▁che	-610
▁end	-611
▁has	-612
▁dist	-613
▁along	-614
▁found	-615
▁across	-616
ough	-617
▁way	-618
lette	-619
▁answ	-620
▁come	-621
▁room	-622
▁young	-623
▁replied	-624
ful	-625
ged	-626
▁cr	-627
rang	-628
▁For	-629
HE	-630
▁K	-631
but	-632
▁bo	-633
ghed	-634
hind	-635
▁gre	-636
▁foll	-637
▁open	-638
▁word	-639
fe	-640
ty	-641
ily	-642
oor	-643
▁la	-644
ited	-645
▁bre	-646
▁cat	-647
utter	-648
▁tell	-649
act	-650
ren	-651
via	-652
▁At	-653
▁dr	-654
ured	-655
▁bet	-656
arter	-657
meric	-658
ylvia	-659
▁Tess	-660
▁care	-661
ations	-662
▁black	-663
▁house	-664
▁without	-665
uch	-666
ves	-667
▁Ar	-668
▁ri	-669
What	-670
ates	-671
ving	-672
▁fin	-673
▁hor	-674
▁set	-675
▁even	-676
▁behind	-677
hes	-678
the	-679
urm	-680
▁wr	-681
▁bro	-682
▁squ	-683
▁ste	-684
▁They	-685
▁comp	-686
▁good	-687
▁inst	-688
▁name	-689
▁stru	-690
▁night	-691
▁pleas	-692
▁still	-693
▁around	-694
It	-695
elt	-696
▁sk	-697
ions	-698
▁new	-699
▁falc	-700
▁much	-701
▁Americ	-702
▁smiled	-703
sp	-704
ens	-705
lie	-706
ause	-707
cept	-708
lect	-709
▁bed	-710
▁bes	-711
▁let	-712
ained	-713
▁fell	-714
▁love	-715
▁rest	-716
▁same	-717
▁hands	-718
▁might	-719
▁Tessie	-720
▁nothing	-721
Oh	-722
io	-723
att	-724
bed	-725
ared	-726
▁dro	-727
▁ser	-728
▁left	-729
▁above	-730
▁heard	-731
▁sound	-732
Yes	-733
ost	-734
▁In	-735
here	-736
▁Rue	-737
▁imp	-738
▁pre	-739
▁felt	-740
▁murm	-741
▁Sylvia	-742
▁beside	-743
▁laughed	-744
▁Co	-745
ired	-746
ised	-747
▁Con	-748
▁THE	-749
▁lay	-750
▁supp	-751
▁course	-752
▁toward	-753
▁U	-754
ans	-755
den	-756
ener	-757
▁cop	-758
▁may	-759
▁great	-760
▁small	-761
▁another	-762
▁Monsieur	-763
ub	-764
ody	-765
ped	-766
ense	-767
lled	-768
▁Lou	-769
▁gard	-770
▁list	-771
▁pres	-772
▁such	-773
▁dream	-774
▁contin	-775
▁return	-776
ird	-777
oul	-778
viè	-779
▁col	-780
ement	-781
viève	-782
▁look	-783
▁part	-784
▁right	-785
▁table	-786
▁world	-787
▁studio	-788
eneviève	-789
▁Colette	-790
ued	-791
▁1.	-792
▁Ch	-793
▁di	-794
ined	-795
ized	-796
ting	-797
urch	-798
▁Haw	-799
▁acc	-800
▁bit	-801
▁exp	-802
▁hat	-803
▁Jack	-804
▁told	-805
▁trou	-806
▁well	-807
▁year	-808
▁floor	-809
▁start	-810
ho	-811
man	-812
orm	-813
oud	-814
▁ad	-815
adow	-816
berk	-817
tain	-818
allow	-819
▁There	-820
▁falcon	-821
▁Hawberk	-822
up	-823
aps	-824
get	-825
ond	-826
ser	-827
▁aw	-828
aced	-829
bled	-830
ning	-831
▁att	-832
▁cle	-833
▁eas	-834
▁fri	-835
▁our	-836
▁yet	-837
ching	-838
▁King	-839
▁cann	-840
▁Louis	-841
▁followed	-842
No	-843
so	-844
ock	-845
▁Se	-846
▁bu	-847
▁sl	-848
ided	-849
ying	-850
▁car	-851
▁hur	-852
▁rue	-853
▁just	-854
▁made	-855
▁once	-856
▁take	-857
▁Yellow	-858
▁friend	-859
▁marble	-860
▁Geneviève	-861
cc	-862
aut	-863
▁sn	-864
aned	-865
ople	-866
▁Par	-867
▁dem	-868
ering	-869
▁gold	-870
▁elect	-871
▁answered	-872
Qu	-873
ip	-874
ms	-875
no	-876
ets	-877
ial	-878
iet	-879
les	-880
dden	-881
▁add	-882
▁air	-883
▁alm	-884
▁ins	-885
▁nor	-886
▁par	-887
▁ref	-888
▁sur	-889
▁tou	-890
▁ever	-891
▁find	-892
▁people	-893
▁looking	-894
az	-895
ts	-896
ée	-897
ash	-898
ery	-899
lec	-900
ror	-901
ton	-902
▁As	-903
▁hu	-904
ours	-905
▁And	-906
▁hal	-907
▁inc	-908
▁met	-909
eared	-910
thing	-911
vered	-912
▁flow	-913
▁keep	-914
▁alone	-915
▁going	-916
▁works	-917
▁church	-918
▁opened	-919
▁sudden	-920
xt	-921
ced	-922
eas	-923
igh	-924
ken	-925
oun	-926
raw	-927
ssi	-928
▁Qu	-929
▁We	-930
▁ho	-931
read	-932
▁Bra	-933
▁Row	-934
▁gra	-935
▁pol	-936
▁red	-937
▁why	-938
aking	-939
icked	-940
ither	-941
▁dead	-942
▁hear	-943
▁seen	-944
▁want	-945
▁belie	-946
▁Braith	-947
▁Rowden	-948
▁instant	-949
▁continued	-950
be	-951
ory	-952
ush	-953
you	-954
body	-955
osed	-956
used	-957
▁get	-958
▁swe	-959
arrée	-960
aught	-961
ember	-962
night	-963
oured	-964
▁expl	-965
▁lips	-966
▁perf	-967
orning	-968
▁Paris	-969
▁laugh	-970
▁smile	-971
▁three	-972
allowby	-973
▁Barrée	-974
▁struck	-975
▁American	-976
ek	-977
gg	-978
▁*	-979
▁’	-980
app	-981
▁fr	-982
airs	-983
▁His	-984
▁art	-985
▁cap	-986
▁dec	-987
▁emb	-988
▁hum	-989
▁ind	-990
▁sle	-991
ribut	-992
▁conf	-993
▁dark	-994
▁half	-995
▁repe	-996
entine	-997
▁beaut	-998
▁below	-999
▁cross	-1000
▁shook	-1001
▁spoke	-1002
▁almost	-1003
▁saying	-1004
▁shadow	-1005
▁walked	-1006
▁against	-1007
▁because	-1008
▁underst	-1009
▁watched	-1010
▁Fallowby	-1011
arn	-1012
lic	-1013
ool	-1014
▁ir	-1015
▁te	-1016
▁Her	-1017
▁fur	-1018
▁hel	-1019
▁hop	-1020
▁men	-1021
▁mod	-1022
ating	-1023
▁This	-1024
▁fall	-1025
▁poin	-1026
▁soft	-1027
stance	-1028
▁chang	-1029
▁raised	-1030
▁silent	-1031
--------	-1032
▁entered	-1033
▁morning	-1034
▁murmured	-1035
▁remember	-1036
He	-1037
we	-1038
ner	-1039
▁el	-1040
ater	-1041
haps	-1042
ront	-1043
▁ass	-1044
▁cre	-1045
▁reg	-1046
▁wom	-1047
ected	-1048
ronic	-1049
▁city	-1050
▁conc	-1051
▁copy	-1052
▁full	-1053
▁give	-1054
▁gone	-1055
▁most	-1056
▁wait	-1057
▁After	-1058
▁inter	-1059
▁thing	-1060
▁Quarter	-1061
▁believe	-1062
▁electronic	-1063
outh	-1064
ways	-1065
▁cry	-1066
▁dri	-1067
▁far	-1068
▁inf	-1069
▁sto	-1070
aster	-1071
otion	-1072
▁drew	-1073
▁hung	-1074
▁life	-1075
▁mine	-1076
▁mist	-1077
ressed	-1078
▁count	-1079
▁creat	-1080
▁front	-1081
▁quiet	-1082
▁speak	-1083
▁these	-1084
▁called	-1085
▁Constance	-1086
ix	-1087
me	-1088
And	-1089
Why	-1090
day	-1091
els	-1092
ern	-1093
▁em	-1094
That	-1095
adem	-1096
ayed	-1097
cile	-1098
iful	-1099
vern	-1100
▁eye	-1101
▁pur	-1102
▁put	-1103
▁sho	-1104
amber	-1105
ition	-1106
rench	-1107
▁also	-1108
▁mind	-1109
▁prom	-1110
▁sent	-1111
▁child	-1112
▁grave	-1113
▁obser	-1114
▁stand	-1115
▁leaned	-1116
▁sprang	-1117
▁within	-1118
▁started	-1119
▁turning	-1120
_,	-1121
oy	-1122
ux	-1123
eth	-1124
lev	-1125
oth	-1126
rap	-1127
uff	-1128
▁By	-1129
▁If	-1130
▁OF	-1131
▁pr	-1132
ince	-1133
room	-1134
rown	-1135
ully	-1136
▁mid	-1137
▁ran	-1138
▁use	-1139
ached	-1140
uring	-1141
▁char	-1142
▁corn	-1143
▁each	-1144
▁ears	-1145
▁fire	-1146
▁gate	-1147
▁happ	-1148
▁held	-1149
▁make	-1150
▁near	-1151
▁next	-1152
▁slow	-1153
uttered	-1154
▁demand	-1155
ze	-1156
▁‘	-1157
eps	-1158
lls	-1159
amed	-1160
ents	-1161
ific	-1162
▁bar	-1163
▁glo	-1164
aring	-1165
ented	-1166
orrow	-1167
▁What	-1168
▁bird	-1169
▁wish	-1170
▁offic	-1171
▁place	-1172
▁tremb	-1173
▁French	-1174
▁better	-1175
▁fellow	-1176
▁creature	-1177
ef	-1178
gs	-1179
ail	-1180
ase	-1181
ife	-1182
imp	-1183
Well	-1184
aged	-1185
ever	-1186
land	-1187
vers	-1188
▁Bou	-1189
▁Mar	-1190
▁law	-1191
ening	-1192
pping	-1193
écile	-1194
▁arms	-1195
▁batt	-1196
▁blue	-1197
▁both	-1198
▁does	-1199
▁feet	-1200
▁iron	-1201
▁sign	-1202
ashing	-1203
levard	-1204
▁Found	-1205
▁blood	-1206
▁faint	-1207
ountain	-1208
▁silence	-1209
▁Foundation	-1210
RE	-1211
_.	-1212
amp	-1213
cri	-1214
esc	-1215
vid	-1216
▁Fr	-1217
▁On	-1218
▁Un	-1219
aces	-1220
reet	-1221
ring	-1222
tern	-1223
that	-1224
▁ang	-1225
▁low	-1226
▁mus	-1227
▁ner	-1228
▁occ	-1229
▁res	-1230
▁sky	-1231
iness	-1232
▁Pres	-1233
▁drag	-1234
▁feel	-1235
▁forg	-1236
▁gave	-1237
▁home	-1238
▁pret	-1239
▁wall	-1240
▁whom	-1241
rought	-1242
▁later	-1243
▁woman	-1244
▁always	-1245
▁enough	-1246
▁motion	-1247
▁slowly	-1248
alentine	-1249
▁observed	-1250
▁repeated	-1251
▁returned	-1252
af	-1253
sh	-1254
Don	-1255
Not	-1256
aid	-1257
alm	-1258
ume	-1259
val	-1260
yed	-1261
ctor	-1262
iced	-1263
part	-1264
▁cut	-1265
▁led	-1266
▁opp	-1267
▁str	-1268
▁tri	-1269
anced	-1270
isted	-1271
▁draw	-1272
▁foot	-1273
▁inqu	-1274
▁lost	-1275
▁many	-1276
▁mean	-1277
▁pers	-1278
▁terr	-1279
▁thin	-1280
gether	-1281
iously	-1282
▁least	-1283
▁those	-1284
▁water	-1285
▁years	-1286
▁cannot	-1287
▁corner	-1288
▁except	-1289
▁seized	-1290
▁finished	-1291
▁fountain	-1292
▁beautiful	-1293
▁distribut	-1294
But	-1295
ats	-1296
ere	-1297
head	-1298
idge	-1299
iter	-1300
▁bas	-1301
▁cor	-1302
▁din	-1303
▁fog	-1304
▁sli	-1305
antly	-1306
fully	-1307
illed	-1308
where	-1309
▁agre	-1310
▁canv	-1311
▁fore	-1312
▁gent	-1313
▁move	-1314
▁need	-1315
▁pain	-1316
▁rece	-1317
▁scre	-1318
▁stro	-1319
▁walk	-1320
▁breat	-1321
▁stone	-1322
▁sweet	-1323
▁times	-1324
▁whole	-1325
▁letter	-1326
▁picked	-1327
▁pretty	-1328
▁square	-1329
▁brought	-1330
▁lighted	-1331
▁stopped	-1332
▁understand	-1333
br	-1334
ph	-1335
als	-1336
arp	-1337
mon	-1338
ses	-1339
umb	-1340
use	-1341
▁Dr	-1342
▁To	-1343
▁“_	-1344
aven	-1345
bour	-1346
cond	-1347
side	-1348
ston	-1349
ween	-1350
what	-1351
▁Arc	-1352
▁Mon	-1353
▁act	-1354
▁bay	-1355
▁big	-1356
▁few	-1357
▁kne	-1358
▁mir	-1359
▁sig	-1360
itted	-1361
ushed	-1362
▁From	-1363
▁book	-1364
▁dear	-1365
▁hold	-1366
▁moor	-1367
▁neck	-1368
▁pale	-1369
▁past	-1370
▁reco	-1371
▁resp	-1372
▁side	-1373
▁soul	-1374
▁stra	-1375
▁thro	-1376
▁week	-1377
ission	-1378
▁chair	-1379
▁cloud	-1380
▁court	-1381
▁horse	-1382
▁music	-1383
▁terms	-1384
▁trees	-1385
▁States	-1386
▁Street	-1387
▁United	-1388
▁become	-1389
▁disapp	-1390
▁garden	-1391
▁second	-1392
▁sighed	-1393
▁stairs	-1394
▁strang	-1395
▁between	-1396
▁touched	-1397
▁demanded	-1398
▁gardener	-1399
;—	-1400
LL	-1401
▁(	-1402
How	-1403
ane	-1404
lem	-1405
med	-1406
ois	-1407
ute	-1408
▁Be	-1409
▁My	-1410
▁du	-1411
▁ed	-1412
fted	-1413
ging	-1414
igne	-1415
rows	-1416
umed	-1417
▁cab	-1418
▁def	-1419
▁yes	-1420
ative	-1421
ierge	-1422
▁best	-1423
▁ceas	-1424
▁coll	-1425
▁hard	-1426
▁help	-1427
▁incl	-1428
▁late	-1429
▁perm	-1430
▁prot	-1431
▁true	-1432
▁whis	-1433
ention	-1434
itting	-1435
▁being	-1436
▁close	-1437
▁moved	-1438
▁tried	-1439
attered	-1440
▁Cécile	-1441
▁answer	-1442
▁breast	-1443
▁canvas	-1444
▁closed	-1445
▁glance	-1446
▁others	-1447
▁silver	-1448
▁changed	-1449
▁flowers	-1450
▁hurried	-1451
▁outside	-1452
▁smiling	-1453
▁listened	-1454
▁together	-1455
▁concierge	-1456
do	-1457
of	-1458
aff	-1459
aim	-1460
ean	-1461
gan	-1462
its	-1463
sel	-1464
und	-1465
uth	-1466
aper	-1467
cret	-1468
iled	-1469
▁Rep	-1470
▁bur	-1471
▁bus	-1472
▁cir	-1473
▁fat	-1474
▁fig	-1475
▁gro	-1476
▁inv	-1477
▁sal	-1478
▁smo	-1479
▁sub	-1480
▁vis	-1481
cript	-1482
tered	-1483
▁calm	-1484
▁deep	-1485
▁free	-1486
▁grey	-1487
▁grow	-1488
▁hour	-1489
▁kept	-1490
▁kiss	-1491
▁live	-1492
ection	-1493
inging	-1494
vering	-1495
▁clear	-1496
▁knows	-1497
▁mount	-1498
▁sharp	-1499
▁short	-1500
▁since	-1501
▁state	-1502
▁steps	-1503
▁words	-1504
▁caught	-1505
▁doctor	-1506
▁figure	-1507
▁rolled	-1508
▁country	-1509
▁decided	-1510
▁dropped	-1511
▁noticed	-1512
▁quietly	-1513
▁appeared	-1514
▁inquired	-1515
▁straight	-1516
▁thoughts	-1517
▁Boulevard	-1518
▁Valentine	-1519
▁copyright	-1520
Do	-1521
ER	-1522
Is	-1523
TM	-1524
avy	-1525
eks	-1526
ict	-1527
ins	-1528
rop	-1529
▁Is	-1530
▁Sc	-1531
▁wo	-1532
ably	-1533
ants	-1534
asse	-1535
atin	-1536
imes	-1537
ison	-1538
▁adv	-1539
▁cig	-1540
▁det	-1541
▁dou	-1542
▁fam	-1543
▁hon	-1544
▁ill	-1545
▁min	-1546
▁mon	-1547
▁sir	-1548
ocked	-1549
owing	-1550
▁done	-1551
▁fair	-1552
▁fear	-1553
▁leav	-1554
▁sett	-1555
▁sort	-1556
ertain	-1557
ssible	-1558
▁aston	-1559
▁charm	-1560
▁doors	-1561
▁heavy	-1562
▁model	-1563
▁organ	-1564
▁smoke	-1565
▁breath	-1566
▁colour	-1567
▁ground	-1568
▁things	-1569
▁terrace	-1570
▁anything	-1571
▁muttered	-1572
▁shoulder	-1573
▁sunlight	-1574
▁Presently	-1575
▁agreement	-1576
RA	-1577
We	-1578
uc	-1579
ug	-1580
der	-1581
ffe	-1582
ili	-1583
omp	-1584
ual	-1585
▁Bl	-1586
▁Go	-1587
They	-1588
arch	-1589
arer	-1590
ical	-1591
idly	-1592
ires	-1593
lend	-1594
rowd	-1595
sted	-1596
▁God	-1597
▁Mad	-1598
▁dev	-1599
▁mis	-1600
▁nur	-1601
▁pal	-1602
▁rub	-1603
▁tal	-1604
▁try	-1605
▁vag	-1606
▁vol	-1607
There	-1608
arent	-1609
ested	-1610
ethal	-1611
ments	-1612
ublic	-1613
▁Arch	-1614
▁With	-1615
▁cons	-1616
▁cost	-1617
▁form	-1618
▁gall	-1619
▁high	-1620
▁imag	-1621
▁mass	-1622
▁repl	-1623
▁stir	-1624
▁sure	-1625
▁tear	-1626
▁wand	-1627
eneral	-1628
morrow	-1629
though	-1630
▁Latin	-1631
▁Vance	-1632
▁bread	-1633
▁broke	-1634
▁crowd	-1635
▁human	-1636
▁quest	-1637
▁river	-1638
▁sight	-1639
▁study	-1640
▁tired	-1641
▁wheel	-1642
▁whose	-1643
▁Lethal	-1644
▁became	-1645
▁bridge	-1646
▁bright	-1647
▁person	-1648
▁Chamber	-1649
▁offered	-1650
▁perhaps	-1651
▁reached	-1652
▁stepped	-1653
▁support	-1654
▁speaking	-1655
ady	-1656
ais	-1657
any	-1658
arc	-1659
ask	-1660
dle	-1661
erm	-1662
ief	-1663
now	-1664
ork	-1665
ram	-1666
unt	-1667
▁An	-1668
▁No	-1669
▁af	-1670
▁vi	-1671
ages	-1672
aret	-1673
ason	-1674
empt	-1675
enty	-1676
fort	-1677
ient	-1678
noon	-1679
noun	-1680
raph	-1681
resh	-1682
ster	-1683
ulpt	-1684
vous	-1685
▁abs	-1686
▁aff	-1687
▁dam	-1688
▁die	-1689
▁exc	-1690
▁ide	-1691
▁mil	-1692
▁pay	-1693
▁sad	-1694
Where	-1695
ident	-1696
osite	-1697
ousin	-1698
ssing	-1699
umber	-1700
▁That	-1701
▁bent	-1702
▁clot	-1703
▁comm	-1704
▁disc	-1705
▁dull	-1706
▁eart	-1707
▁four	-1708
▁hair	-1709
▁hall	-1710
▁hast	-1711
▁hope	-1712
▁land	-1713
▁paid	-1714
▁play	-1715
▁prov	-1716
▁sold	-1717
ession	-1718
itated	-1719
▁Seine	-1720
▁bowed	-1721
▁crown	-1722
▁glass	-1723
▁hours	-1724
▁paint	-1725
▁watch	-1726
▁Govern	-1727
▁cannon	-1728
▁ceased	-1729
▁coming	-1730
▁cousin	-1731
▁either	-1732
▁filled	-1733
▁fright	-1734
▁lifted	-1735
▁mirror	-1736
▁sculpt	-1737
▁splend	-1738
▁wonder	-1739
▁crossed	-1740
▁delight	-1741
▁herself	-1742
▁slipped	-1743
▁sounded	-1744
▁laughing	-1745
▁opposite	-1746
▁standing	-1747
▁troubled	-1748
▁afternoon	-1749
▁GutenbergTM	-1750
EN	-1751
If	-1752
OU	-1753
Th	-1754
du	-1755
Are	-1756
For	-1757
ape	-1758
asp	-1759
ces	-1760
ift	-1761
ios	-1762
not	-1763
ots	-1764
rew	-1765
ump	-1766
vel	-1767
▁Al	-1768
▁Gu	-1769
▁II	-1770
▁sy	-1771
Come	-1772
ches	-1773
icem	-1774
ield	-1775
ines	-1776
inet	-1777
lies	-1778
like	-1779
oney	-1780
ooks	-1781
rupt	-1782
ssed	-1783
utes	-1784
uxem	-1785
▁New	-1786
▁Why	-1787
▁ask	-1788
▁boy	-1789
▁esc	-1790
▁lim	-1791
▁mad	-1792
▁thr	-1793
▁van	-1794
ashed	-1795
bourg	-1796
eanne	-1797
iding	-1798
iment	-1799
ining	-1800
iting	-1801
itten	-1802
ought	-1803
venue	-1804
▁Cast	-1805
▁Sign	-1806
▁burn	-1807
▁chap	-1808
▁circ	-1809
▁dang	-1810
▁else	-1811
▁exam	-1812
▁fast	-1813
▁fing	-1814
▁fled	-1815
▁fool	-1816
▁gest	-1817
▁laid	-1818
▁maid	-1819
▁pure	-1820
▁self	-1821
▁serv	-1822
▁stat	-1823
▁used	-1824
▁warm	-1825
artman	-1826
icense	-1827
▁Luxem	-1828
▁added	-1829
▁bayon	-1830
▁crept	-1831
▁death	-1832
▁earth	-1833
▁forth	-1834
▁paper	-1835
▁quick	-1836
▁shoot	-1837
▁shout	-1838
iterary	-1839
▁cheeks	-1840
▁includ	-1841
▁nearer	-1842
▁rather	-1843
▁strugg	-1844
▁taking	-1845
▁throat	-1846
▁yellow	-1847
▁gesture	-1848
▁nervous	-1849
▁passing	-1850
▁policem	-1851
▁whether	-1852
▁although	-1853
▁students	-1854
▁suddenly	-1855
▁Luxembourg	-1856
Ah	-1857
ON	-1858
ec	-1859
ey	-1860
ib	-1861
og	-1862
ads	-1863
ech	-1864
eed	-1865
ian	-1866
iew	-1867
ium	-1868
ned	-1869
noc	-1870
onn	-1871
pit	-1872
pri	-1873
ric	-1874
sed	-1875
ult	-1876
▁Do	-1877
▁eB	-1878
▁oh	-1879
aden	-1880
ades	-1881
agon	-1882
aped	-1883
azed	-1884
erse	-1885
lish	-1886
long	-1887
orth	-1888
raid	-1889
ular	-1890
▁How	-1891
▁One	-1892
▁ack	-1893
▁box	-1894
▁eff	-1895
▁fee	-1896
▁fut	-1897
▁got	-1898
▁pig	-1899
▁pos	-1900
▁pow	-1901
▁ton	-1902
▁tur	-1903
acked	-1904
aigne	-1905
alion	-1906
cious	-1907
pered	-1908
▁Here	-1909
▁blow	-1910
▁days	-1911
▁empt	-1912
▁fort	-1913
▁grew	-1914
▁idea	-1915
▁kind	-1916
▁less	-1917
▁pans	-1918
▁rail	-1919
▁safe	-1920
▁sake	-1921
▁song	-1922
▁wear	-1923
▁wood	-1924
agraph	-1925
gation	-1926
nowled	-1927
▁Scott	-1928
▁awoke	-1929
▁begin	-1930
▁bells	-1931
▁chest	-1932
▁clean	-1933
▁easel	-1934
▁fresh	-1935
▁girls	-1936
▁green	-1937
▁innoc	-1938
▁knife	-1939
▁leave	-1940
▁lying	-1941
▁manus	-1942
▁nurse	-1943
▁sleep	-1944
▁squad	-1945
▁sunsh	-1946
▁whist	-1947
ademark	-1948
ankment	-1949
onsense	-1950
ression	-1951
▁charge	-1952
▁future	-1953
▁kissed	-1954
▁placed	-1955
▁stream	-1956
▁twenty	-1957
▁Archive	-1958
▁cigaret	-1959
▁finally	-1960
▁neither	-1961
▁pointed	-1962
▁streets	-1963
▁suppose	-1964
▁windows	-1965
▁Literary	-1966
▁pleasant	-1967
▁acknowled	-1968
▁battalion	-1969
▁paragraph	-1970
▁sometimes	-1971
▁embankment	-1972
▁manuscript	-1973
▁permission	-1974
00	-1975
IS	-1976
TI	-1977
lc	-1978
my	-1979
sy	-1980
to	-1981
▁à	-1982
afé	-1983
col	-1984
isf	-1985
osa	-1986
ten	-1987
uli	-1988
▁RE	-1989
▁ST	-1990
▁jo	-1991
Then	-1992
alth	-1993
bing	-1994
ible	-1995
ices	-1996
inct	-1997
ived	-1998
omes	-1999
vent	-2000
yond	-2001
▁Eng	-2002
▁Now	-2003
▁Ren	-2004
▁amb	-2005
▁cru	-2006
▁dog	-2007
▁gun	-2008
▁hes	-2009
▁jum	-2010
▁lie	-2011
▁mer	-2012
▁rag	-2013
▁rap	-2014
▁run	-2015
▁sit	-2016
▁sol	-2017
▁ten	-2018
▁tow	-2019
▁tro	-2020
▁unc	-2021
▁war	-2022
▁won	-2023
acing	-2024
aning	-2025
apped	-2026
ately	-2027
bably	-2028
elled	-2029
ified	-2030
irect	-2031
otten	-2032
ready	-2033
ustom	-2034
▁Mont	-2035
▁York	-2036
▁bore	-2037
▁cent	-2038
▁clim	-2039
▁cold	-2040
▁doub	-2041
▁drum	-2042
▁easy	-2043
▁hunt	-2044
▁laws	-2045
▁mere	-2046
▁miss	-2047
▁path	-2048
▁requ	-2049
▁roll	-2050
▁shop	-2051
▁shut	-2052
▁soon	-2053
▁spot	-2054
▁suff	-2055
▁welc	-2056
ically	-2057
▁Byram	-2058
▁Every	-2059
▁break	-2060
▁catch	-2061
▁compl	-2062
▁doing	-2063
▁gates	-2064
▁incre	-2065
▁money	-2066
▁relie	-2067
▁reply	-2068
▁spark	-2069
▁swift	-2070
▁threw	-2071
▁touch	-2072
▁trans	-2073
▁vague	-2074
▁Bladen	-2075
▁France	-2076
▁access	-2077
▁afraid	-2078
▁barred	-2079
▁beyond	-2080
▁dinner	-2081
▁forget	-2082
▁gather	-2083
▁intere	-2084
▁matter	-2085
▁quaint	-2086
▁reason	-2087
▁spring	-2088
▁stared	-2089
▁though	-2090
▁thread	-2091
▁wished	-2092
▁Hartman	-2093
▁already	-2094
▁attempt	-2095
▁drawing	-2096
▁gravely	-2097
▁mounted	-2098
▁perfect	-2099
▁present	-2100
▁shadows	-2101
▁strange	-2102
▁walking	-2103
ashington	-2104
▁charming	-2105
▁pleasure	-2106
▁splendid	-2107
▁trembled	-2108
▁Castaigne	-2109
▁donations	-2110
▁explained	-2111
▁forgotten	-2112
▁hesitated	-2113
▁trademark	-2114
▁trembling	-2115
▁whispered	-2116
▁remembered	-2117
----------------	-2118
Of	-2119
bo	-2120
bs	-2121
iv	-2122
,—“	-2123
Who	-2124
ald	-2125
bre	-2126
ims	-2127
int	-2128
ize	-2129
kes	-2130
lew	-2131
str	-2132
tes	-2133
urs	-2134
zen	-2135
▁19	-2136
▁Od	-2137
▁Oh	-2138
▁gu	-2139
▁ru	-2140
Have	-2141
acks	-2142
alec	-2143
amps	-2144
angu	-2145
atch	-2146
bbed	-2147
ists	-2148
omas	-2149
oned	-2150
oped	-2151
oral	-2152
orne	-2153
pril	-2154
quis	-2155
road	-2156
▁All	-2157
▁Was	-2158
▁bad	-2159
▁cou	-2160
▁ear	-2161
▁eat	-2162
▁fix	-2163
▁gar	-2164
▁haw	-2165
▁joy	-2166
▁med	-2167
▁pet	-2168
▁pri	-2169
▁rec	-2170
▁rel	-2171
▁shi	-2172
▁spr	-2173
▁sum	-2174
▁tra	-2175
▁win	-2176
clock	-2177
ility	-2178
ister	-2179
ually	-2180
▁Carc	-2181
▁Miss	-2182
▁Some	-2183
▁arch	-2184
▁barr	-2185
▁bene	-2186
▁bull	-2187
▁case	-2188
▁cast	-2189
▁cell	-2190
▁cord	-2191
▁didn	-2192
▁glad	-2193
▁grou	-2194
▁jing	-2195
▁line	-2196
▁meet	-2197
▁moon	-2198
▁news	-2199
▁none	-2200
▁pool	-2201
▁rock	-2202
▁sank	-2203
▁scar	-2204
▁send	-2205
▁sens	-2206
▁stri	-2207
▁tree	-2208
ension	-2209
ildred	-2210
ousand	-2211
ushing	-2212
▁Guern	-2213
▁bound	-2214
▁dress	-2215
▁franc	-2216
▁hound	-2217
▁known	-2218
▁langu	-2219
▁loved	-2220
▁mouth	-2221
▁often	-2222
▁owner	-2223
▁stars	-2224
▁steel	-2225
ational	-2226
fferent	-2227
ination	-2228
itation	-2229
utation	-2230
▁Hastur	-2231
▁Heaven	-2232
▁Jeanne	-2233
▁Thomas	-2234
▁accept	-2235
▁bitter	-2236
▁desire	-2237
▁direct	-2238
▁jumped	-2239
▁listen	-2240
▁mother	-2241
▁moving	-2242
▁object	-2243
▁relief	-2244
▁tender	-2245
▁terror	-2246
▁America	-2247
▁Carcosa	-2248
▁carried	-2249
▁climbed	-2250
▁clothes	-2251
▁doorway	-2252
▁dragged	-2253
▁feeling	-2254
▁growled	-2255
▁knowing	-2256
▁leaving	-2257
▁minutes	-2258
▁officer	-2259
▁pansies	-2260
▁settled	-2261
▁wheeled	-2262
▁written	-2263
▁business	-2264
▁movement	-2265
▁question	-2266
▁squadron	-2267
▁sunshine	-2268
▁thousand	-2269
▁Guernalec	-2270
▁attention	-2271
▁interrupt	-2272
▁policeman	-2273
▁presently	-2274
▁Washington	-2275
▁astonished	-2276
▁everything	-2277
▁frightened	-2278
AR	-2279
ED	-2280
IT	-2281
Mr	-2282
My	-2283
ND	-2284
OR	-2285
To	-2286
UT	-2287
gn	-2288
ia	-2289
—“	-2290
▁2	-2291
▁|	-2292
agn	-2293
amm	-2294
asc	-2295
awn	-2296
bly	-2297
che	-2298
cho	-2299
don	-2300
eng	-2301
ges	-2302
ipe	-2303
ony	-2304
ors	-2305
ows	-2306
que	-2307
uck	-2308
▁Cl	-2309
▁ph	-2310
▁ve	-2311
Good	-2312
acqu	-2313
aily	-2314
clus	-2315
leep	-2316
onel	-2317
onna	-2318
rawn	-2319
then	-2320
▁Not	-2321
▁Pal	-2322
▁ago	-2323
▁aid	-2324
▁anx	-2325
▁hot	-2326
▁loc	-2327
▁lun	-2328
▁mor	-2329
▁nat	-2330
▁pie	-2331
▁spo	-2332
▁tin	-2333
▁tor	-2334
▁uns	-2335
actus	-2336
ading	-2337
ammer	-2338
ances	-2339
anted	-2340
eping	-2341
iated	-2342
icken	-2343
riage	-2344
under	-2345
▁Byng	-2346
▁acqu	-2347
▁bend	-2348
▁bott	-2349
▁cand	-2350
▁cane	-2351
▁dust	-2352
▁evid	-2353
▁fine	-2354
▁five	-2355
▁hers	-2356
▁pave	-2357
▁pige	-2358
▁pity	-2359
▁poor	-2360
▁port	-2361
▁poss	-2362
▁prof	-2363
▁rang	-2364
▁rosy	-2365
▁seat	-2366
▁simp	-2367
▁torn	-2368
▁weak	-2369
▁wide	-2370
aining	-2371
ancing	-2372
selves	-2373
▁April	-2374
▁Marie	-2375
▁South	-2376
▁agree	-2377
▁apart	-2378
▁awful	-2379
▁basin	-2380
▁bring	-2381
▁clasp	-2382
▁crack	-2383
▁displ	-2384
▁fever	-2385
▁gloom	-2386
▁grass	-2387
▁learn	-2388
▁marry	-2389
▁notes	-2390
▁occup	-2391
▁order	-2392
▁plain	-2393
▁plung	-2394
▁quite	-2395
▁ready	-2396
▁steam	-2397
▁thick	-2398
▁worse	-2399
ossible	-2400
▁asleep	-2401
▁batter	-2402
▁broken	-2403
▁cactus	-2404
▁cellar	-2405
▁effort	-2406
▁expect	-2407
▁father	-2408
▁flight	-2409
▁garter	-2410
▁hearse	-2411
▁honest	-2412
▁living	-2413
▁longer	-2414
▁number	-2415
▁poured	-2416
▁really	-2417
▁recogn	-2418
▁satisf	-2419
▁search	-2420
▁speech	-2421
▁throng	-2422
▁volunt	-2423
▁waited	-2424
Monsieur	-2425
coloured	-2426
ormation	-2427
▁English	-2428
▁beneath	-2429
▁convers	-2430
▁covered	-2431
▁evening	-2432
▁friends	-2433
▁further	-2434
▁glanced	-2435
▁marched	-2436
▁palette	-2437
▁passion	-2438
▁sitting	-2439
▁smoking	-2440
▁waiting	-2441
▁darkness	-2442
▁insisted	-2443
▁officers	-2444
▁pavement	-2445
▁probably	-2446
▁somebody	-2447
▁wandered	-2448
▁falconers	-2449
▁shoulders	-2450
▁understood	-2451
▁interrupted	-2452
;”	-2453
ES	-2454
Se	-2455
de	-2456
kn	-2457
lt	-2458
ww	-2459
zy	-2460
ELL	-2461
REE	-2462
alt	-2463
ead	-2464
ert	-2465
fle	-2466
for	-2467
gin	-2468
gue	-2469
hel	-2470
icy	-2471
ils	-2472
ime	-2473
nes	-2474
unk	-2475
▁De	-2476
▁Ed	-2477
▁Of	-2478
▁Ph	-2479
▁Pl	-2480
▁So	-2481
▁Tw	-2482
▁Wh	-2483
Jack	-2484
aled	-2485
ames	-2486
aoul	-2487
hall	-2488
hold	-2489
ides	-2490
igue	-2491
roid	-2492
rose	-2493
usie	-2494
▁REP	-2495
▁cho	-2496
▁cra	-2497
▁cup	-2498
▁enc	-2499
▁ext	-2500
▁gor	-2501
▁lan	-2502
▁pat	-2503
▁que	-2504
▁six	-2505
assed	-2506
claim	-2507
eless	-2508
ience	-2509
itary	-2510
lemen	-2511
ndred	-2512
oward	-2513
reton	-2514
rible	-2515
spect	-2516
stant	-2517
urred	-2518
using	-2519
▁Alec	-2520
▁anno	-2521
▁bell	-2522
▁body	-2523
▁desp	-2524
▁dest	-2525
▁harm	-2526
▁lady	-2527
▁legs	-2528
▁obli	-2529
▁pose	-2530
▁ratt	-2531
▁rese	-2532
▁shot	-2533
▁sick	-2534
▁spar	-2535
▁stup	-2536
▁sugg	-2537
▁view	-2538
action	-2539
erhaps	-2540
umbled	-2541
▁Susie	-2542
▁claim	-2543
▁cruel	-2544
▁flung	-2545
▁grace	-2546
▁group	-2547
▁happy	-2548
▁knees	-2549
▁scrap	-2550
▁story	-2551
▁teeth	-2552
agnific	-2553
covered	-2554
ishment	-2555
umbling	-2556
▁Archer	-2557
▁Avenue	-2558
▁Breton	-2559
▁announ	-2560
▁candle	-2561
▁change	-2562
▁comply	-2563
▁curios	-2564
▁custom	-2565
▁danger	-2566
▁during	-2567
▁gentle	-2568
▁golden	-2569
▁hungry	-2570
▁latter	-2571
▁manner	-2572
▁master	-2573
▁middle	-2574
▁nearly	-2575
▁please	-2576
▁proper	-2577
▁sortie	-2578
▁Hildred	-2579
▁License	-2580
▁certain	-2581
▁colonel	-2582
▁comfort	-2583
▁distant	-2584
▁embroid	-2585
▁falcons	-2586
▁forward	-2587
▁hundred	-2588
▁imagine	-2589
▁increas	-2590
▁opening	-2591
▁passage	-2592
▁pension	-2593
▁plunged	-2594
▁receive	-2595
▁refused	-2596
▁respect	-2597
▁resumed	-2598
▁serious	-2599
▁soldier	-2600
▁swiftly	-2601
▁welcome	-2602
▁barracks	-2603
▁children	-2604
▁distance	-2605
▁nonsense	-2606
▁strolled	-2607
▁yourself	-2608
▁beginning	-2609
▁curiously	-2610
▁gentlemen	-2611
▁happiness	-2612
▁including	-2613
▁listening	-2614
▁Government	-2615
▁impossible	-2616
▁motionless	-2617
▁disappeared	-2618
▁conversation	-2619
!—	-2620
.’	-2621
CT	-2622
Ch	-2623
NG	-2624
fa	-2625
ny	-2626
oh	-2627
——	-2628
Did	-2629
Pro	-2630
agg	-2631
aws	-2632
bit	-2633
hus	-2634
irt	-2635
lee	-2636
ler	-2637
lin	-2638
ney	-2639
omb	-2640
oms	-2641
org	-2642
ple	-2643
pth	-2644
rer	-2645
rie	-2646
rif	-2647
une	-2648
ère	-2649
▁IN	-2650
▁Re	-2651
▁ev	-2652
▁fa	-2653
▁gi	-2654
aded	-2655
agie	-2656
ancy	-2657
atic	-2658
cess	-2659
elle	-2660
ette	-2661
husi	-2662
just	-2663
llow	-2664
nded	-2665
ngth	-2666
oire	-2667
onze	-2668
rily	-2669
ruth	-2670
they	-2671
ures	-2672
yard	-2673
▁Bow	-2674
▁Ger	-2675
▁Hal	-2676
▁Pel	-2677
▁Squ	-2678
▁ben	-2679
▁bri	-2680
▁bug	-2681
▁buy	-2682
▁den	-2683
▁eng	-2684
▁equ	-2685
▁est	-2686
▁exh	-2687
▁fif	-2688
▁flo	-2689
▁fly	-2690
▁gam	-2691
▁god	-2692
▁icy	-2693
▁jew	-2694
▁key	-2695
▁pit	-2696
▁ray	-2697
▁row	-2698
▁sec	-2699
▁und	-2700
althy	-2701
ardon	-2702
arest	-2703
ascin	-2704
asped	-2705
avour	-2706
ction	-2707
eline	-2708
essed	-2709
ields	-2710
inted	-2711
ipped	-2712
isten	-2713
izing	-2714
lling	-2715
olate	-2716
ormed	-2717
ssian	-2718
ulian	-2719
ushes	-2720
veral	-2721
▁arri	-2722
▁bank	-2723
▁comr	-2724
▁decl	-2725
▁died	-2726
▁echo	-2727
▁edge	-2728
▁fact	-2729
▁flag	-2730
▁indi	-2731
▁kill	-2732
▁leng	-2733
▁ling	-2734
▁mask	-2735
▁milk	-2736
▁nodd	-2737
▁note	-2738
▁pill	-2739
▁pink	-2740
▁remo	-2741
▁rise	-2742
▁roof	-2743
▁snow	-2744
▁star	-2745
▁stay	-2746
▁stoo	-2747
▁suit	-2748
▁west	-2749
▁worn	-2750
inable	-2751
ishing	-2752
terday	-2753
ulance	-2754
vation	-2755
▁Jacqu	-2756
▁Kerse	-2757
▁Odile	-2758
▁Raoul	-2759
▁alley	-2760
▁appro	-2761
▁assoc	-2762
▁birds	-2763
▁brown	-2764
▁comes	-2765
▁crims	-2766
▁depth	-2767
▁drawn	-2768
▁drown	-2769
▁faces	-2770
▁flash	-2771
▁homes	-2772
▁impat	-2773
▁lives	-2774
▁lower	-2775
▁moors	-2776
▁pages	-2777
▁power	-2778
▁rooms	-2779
▁roses	-2780
▁seems	-2781
▁stair	-2782
▁stret	-2783
▁super	-2784
▁swear	-2785
▁swept	-2786
▁tears	-2787
▁tight	-2788
▁train	-2789
▁troop	-2790
▁trout	-2791
▁usual	-2792
▁utter	-2793
▁wings	-2794
▁wrist	-2795
▁wrong	-2796
oiselle	-2797
pentine	-2798
quisite	-2799
▁Dragon	-2800
▁German	-2801
▁Julian	-2802
▁Severn	-2803
▁Thorne	-2804
▁armour	-2805
▁battle	-2806
▁bronze	-2807
▁buried	-2808
▁button	-2809
▁copies	-2810
▁crying	-2811
▁depart	-2812
▁dreams	-2813
▁explan	-2814
▁faster	-2815
▁flower	-2816
▁francs	-2817
▁gently	-2818
▁hammer	-2819
▁horses	-2820
▁hounds	-2821
▁intend	-2822
▁meadow	-2823
▁notice	-2824
▁paused	-2825
▁played	-2826
▁refund	-2827
▁repair	-2828
▁riding	-2829
▁scream	-2830
▁secret	-2831
▁summer	-2832
▁voices	-2833
▁wanted	-2834
▁General	-2835
▁Pelagie	-2836
▁angrily	-2837
▁bedroom	-2838
▁chatter	-2839
▁costume	-2840
▁enthusi	-2841
▁explain	-2842
▁faintly	-2843
▁fatigue	-2844
▁fellows	-2845
▁flushed	-2846
▁however	-2847
▁keeping	-2848
▁knocked	-2849
▁lantern	-2850
▁painted	-2851
▁promise	-2852
▁provide	-2853
▁quarter	-2854
▁reading	-2855
▁several	-2856
▁shouted	-2857
▁stirred	-2858
▁student	-2859
▁volunte	-2860
gutenberg	-2861
▁Kerselec	-2862
▁apparent	-2863
▁catching	-2864
▁confused	-2865
▁distinct	-2866
▁expected	-2867
▁fastened	-2868
▁magnific	-2869
▁midnight	-2870
▁polished	-2871
▁position	-2872
▁received	-2873
▁regiment	-2874
▁strength	-2875
▁surround	-2876
▁vanished	-2877
▁announced	-2878
▁cigarette	-2879
▁curiosity	-2880
▁different	-2881
▁everybody	-2882
▁exquisite	-2883
▁following	-2884
▁murmuring	-2885
▁supported	-2886
▁Jacqueline	-2887
▁churchyard	-2888
▁expression	-2889
▁pleasantly	-2890
.1	-2891
By	-2892
IL	-2893
Pr	-2894
RO	-2895
SE	-2896
Ys	-2897
ok	-2898
pe	-2899
▁+	-2900
▁3	-2901
All	-2902
Let	-2903
Now	-2904
_.”	-2905
aux	-2906
ded	-2907
dge	-2908
eal	-2909
esp	-2910
fer	-2911
his	-2912
ieu	-2913
inc	-2914
ker	-2915
lly	-2916
mbl	-2917
nut	-2918
omm	-2919
oss	-2920
ths	-2921
uce	-2922
ues	-2923
umn	-2924
uss	-2925
▁18	-2926
▁LI	-2927
▁Le	-2928
▁TH	-2929
▁ap	-2930
▁av	-2931
▁er	-2932
▁hy	-2933
▁id	-2934
Hell	-2935
This	-2936
anes	-2937
ange	-2938
arry	-2939
arsh	-2940
aunt	-2941
aval	-2942
bird	-2943
cely	-2944
cing	-2945
cket	-2946
gain	-2947
geon	-2948
icks	-2949
iles	-2950
inds	-2951
izon	-2952
lemn	-2953
lete	-2954
olic	-2955
omed	-2956
oose	-2957
ored	-2958
ouve	-2959
plic	-2960
ptly	-2961
rodu	-2962
sers	-2963
unct	-2964
▁Are	-2965
▁Cap	-2966
▁Ept	-2967
▁Sul	-2968
▁YOU	-2969
▁adm	-2970
▁ban	-2971
▁bol	-2972
▁bow	-2973
▁cro	-2974
▁ees	-2975
▁fro	-2976
▁imm	-2977
▁jud	-2978
▁lap	-2979
▁leg	-2980
▁nar	-2981
▁pen	-2982
▁pul	-2983
▁rab	-2984
▁sim	-2985
▁spi	-2986
▁tax	-2987
▁tem	-2988
▁unf	-2989
▁wax	-2990
▁www	-2991
Fates	-2992
Hello	-2993
acket	-2994
actly	-2995
alled	-2996
astic	-2997
cient	-2998
iling	-2999
ledge	-3000
olute	-3001
ongue	-3002
ouses	-3003
▁Arts	-3004
▁Barn	-3005
▁Boul	-3006
▁Four	-3007
▁Germ	-3008
▁band	-3009
▁beat	-3010
▁cong	-3011
▁conv	-3012
▁corp	-3013
▁deal	-3014
▁disg	-3015
▁fish	-3016
▁fond	-3017
▁frag	-3018
▁gild	-3019
▁heap	-3020
▁horn	-3021
▁lamp	-3022
▁lily	-3023
▁ment	-3024
▁mill	-3025
▁nose	-3026
▁pair	-3027
▁pipe	-3028
▁real	-3029
▁ripp	-3030
▁rust	-3031
▁sauc	-3032
▁sink	-3033
▁succ	-3034
▁tast	-3035
▁thor	-3036
▁tink	-3037
▁tram	-3038
▁viol	-3039
ashion	-3040
elling	-3041
erning	-3042
othing	-3043
perate	-3044
stairs	-3045
tained	-3046
▁Place	-3047
▁Still	-3048
▁alarm	-3049
▁aloud	-3050
▁awake	-3051
▁burst	-3052
▁chill	-3053
▁cover	-3054
▁crash	-3055
▁dared	-3056
▁deser	-3057
▁devil	-3058
▁doubt	-3059
▁empty	-3060
▁enter	-3061
▁excit	-3062
▁exist	-3063
▁fixed	-3064
▁gamin	-3065
▁gener	-3066
▁midst	-3067
▁miser	-3068
▁names	-3069
▁purse	-3070
▁ranks	-3071
▁rifle	-3072
▁shame	-3073
▁share	-3074
▁shock	-3075
▁shoes	-3076
▁spite	-3077
▁staff	-3078
▁stick	-3079
▁swung	-3080
▁taken	-3081
▁thank	-3082
▁thres	-3083
▁visit	-3084
▁walls	-3085
▁wound	-3086
ability	-3087
aughter	-3088
▁Bowles	-3089
▁Madame	-3090
▁Palace	-3091
▁belong	-3092
▁bought	-3093
▁burned	-3094
▁chance	-3095
▁clouds	-3096
▁consid	-3097
▁cursed	-3098
▁defect	-3099
▁depths	-3100
▁determ	-3101
▁eBooks	-3102
▁family	-3103
▁fascin	-3104
▁finger	-3105
▁finish	-3106
▁forgot	-3107
▁gloves	-3108
▁hardly	-3109
▁having	-3110
▁heaven	-3111
▁horror	-3112
▁inside	-3113
▁lovely	-3114
▁marked	-3115
▁murmur	-3116
▁mutter	-3117
▁narrow	-3118
▁nature	-3119
▁nodded	-3120
▁parent	-3121
▁pulpit	-3122
▁rubbed	-3123
▁screen	-3124
▁seated	-3125
▁seeing	-3126
▁simply	-3127
▁smiles	-3128
▁softly	-3129
▁solemn	-3130
▁sorrow	-3131
▁tongue	-3132
▁tossed	-3133
▁trying	-3134
▁worked	-3135
▁Germain	-3136
▁Madonna	-3137
▁Section	-3138
▁address	-3139
▁annoyed	-3140
▁arrived	-3141
▁battery	-3142
▁bayonet	-3143
▁brushes	-3144
▁calling	-3145
▁chicken	-3146
▁company	-3147
▁curious	-3148
▁falling	-3149
▁fingers	-3150
▁furious	-3151
▁gateway	-3152
▁hallway	-3153
▁heather	-3154
▁missing	-3155
▁moments	-3156
▁perfume	-3157
▁playing	-3158
▁pressed	-3159
▁reflect	-3160
▁singing	-3161
▁slender	-3162
▁staring	-3163
▁stooped	-3164
▁thunder	-3165
▁absolute	-3166
▁bayonets	-3167
▁chestnut	-3168
▁disclaim	-3169
▁falconry	-3170
▁imagined	-3171
▁innocent	-3172
▁mistress	-3173
▁pointing	-3174
▁possible	-3175
▁promptly	-3176
▁replaced	-3177
▁sculptor	-3178
▁servants	-3179
▁startled	-3180
▁thinking	-3181
▁thorough	-3182
▁trousers	-3183
▁watching	-3184
ifications	-3185
▁apartment	-3186
▁caressing	-3187
▁delighted	-3188
▁evidently	-3189
▁knowledge	-3190
▁presented	-3191
▁threshold	-3192
▁yesterday	-3193
▁associated	-3194
▁concerning	-3195
▁excitement	-3196
▁recognized	-3197
▁turpentine	-3198
▁explanation	-3199
▁magnificent	-3200
▁acknowledged	-3201
▁distributing	-3202
-+	-3203
.3	-3204
AM	-3205
EM	-3206
In	-3207
ai	-3208
cy	-3209
ex	-3210
lu	-3211
mp	-3212
ox	-3213
rr	-3214
zz	-3215
ôt	-3216
▁z	-3217
ATI	-3218
BER	-3219
IRE	-3220
Kid	-3221
See	-3222
abé	-3223
alk	-3224
asm	-3225
avi	-3226
cks	-3227
ger	-3228
hys	-3229
ilt	-3230
men	-3231
nat	-3232
ole	-3233
ont	-3234
rid	-3235
set	-3236
tic	-3237
was	-3238
▁Br	-3239
▁El	-3240
▁Hy	-3241
▁Mo	-3242
▁NO	-3243
▁Ne	-3244
▁OR	-3245
▁pi	-3246
▁pu	-3247
▁ze	-3248
REET	-3249
Take	-3250
alon	-3251
asol	-3252
bles	-3253
ceed	-3254
cker	-3255
dled	-3256
eyed	-3257
ffic	-3258
have	-3259
hole	-3260
iege	-3261
iety	-3262
ifth	-3263
ilip	-3264
live	-3265
mper	-3266
oint	-3267
olog	-3268
onds	-3269
pent	-3270
pice	-3271
ract	-3272
reau	-3273
reme	-3274
ries	-3275
uffy	-3276
ules	-3277
wark	-3278
when	-3279
ylum	-3280
zing	-3281
▁Amb	-3282
▁Bur	-3283
▁III	-3284
▁Ind	-3285
▁May	-3286
▁PRO	-3287
▁Pru	-3288
▁Who	-3289
▁arg	-3290
▁bou	-3291
▁dep	-3292
▁dut	-3293
▁elb	-3294
▁fer	-3295
▁fit	-3296
▁gri	-3297
▁hid	-3298
▁hoo	-3299
▁lot	-3300
▁mel	-3301
▁ord	-3302
▁rat	-3303
▁rev	-3304
▁sac	-3305
▁sea	-3306
▁unw	-3307
▁val	-3308
ATION	-3309
agged	-3310
ailed	-3311
anged	-3312
bbing	-3313
brary	-3314
chief	-3315
cking	-3316
ichel	-3317
ierce	-3318
ilton	-3319
inded	-3320
inged	-3321
itect	-3322
ities	-3323
ively	-3324
ospit	-3325
ously	-3326
place	-3327
rance	-3328
range	-3329
rayed	-3330
rying	-3331
stand	-3332
stery	-3333
thern	-3334
unday	-3335
ution	-3336
zzled	-3337
▁Army	-3338
▁Cath	-3339
▁Come	-3340
▁Hali	-3341
▁Once	-3342
▁arou	-3343
▁bear	-3344
▁blew	-3345
▁café	-3346
▁clin	-3347
▁crou	-3348
▁diam	-3349
▁dign	-3350
▁disp	-3351
▁evil	-3352
▁flat	-3353
▁grin	-3354
▁hare	-3355
▁hide	-3356
▁host	-3357
▁hurt	-3358
▁huss	-3359
▁lawn	-3360
▁limp	-3361
▁loud	-3362
▁nois	-3363
▁noon	-3364
▁park	-3365
▁pron	-3366
▁rich	-3367
▁silk	-3368
▁sing	-3369
▁sket	-3370
▁sofa	-3371
▁spec	-3372
▁surf	-3373
▁tail	-3374
▁thri	-3375
▁tore	-3376
▁tran	-3377
▁unhe	-3378
▁wash	-3379
▁wife	-3380
Listen	-3381
Sylvia	-3382
apable	-3383
avalry	-3384
icking	-3385
icular	-3386
igneur	-3387
itions	-3388
lessly	-3389
ouveau	-3390
▁Beaux	-3391
▁Elven	-3392
▁Loire	-3393
▁Monse	-3394
▁Salon	-3395
▁Somet	-3396
▁While	-3397
▁alive	-3398
▁arose	-3399
▁aside	-3400
▁bench	-3401
▁blank	-3402
▁books	-3403
▁built	-3404
▁cheek	-3405
▁cheer	-3406
▁clung	-3407
▁conce	-3408
▁cryst	-3409
▁delic	-3410
▁dozen	-3411
▁eBook	-3412
▁early	-3413
▁ended	-3414
▁faced	-3415
▁flies	-3416
▁gaily	-3417
▁gorse	-3418
▁guard	-3419
▁haven	-3420
▁hawks	-3421
▁kneel	-3422
▁liber	-3423
▁lines	-3424
▁metal	-3425
▁north	-3426
▁plate	-3427
▁produ	-3428
▁raise	-3429
▁reach	-3430
▁sense	-3431
▁siege	-3432
▁stove	-3433
▁straw	-3434
▁taste	-3435
▁thief	-3436
▁tones	-3437
▁truth	-3438
▁uneas	-3439
▁using	-3440
▁women	-3441
▁worth	-3442
▁yours	-3443
cretary	-3444
guereau	-3445
hysical	-3446
inister	-3447
lighted	-3448
▁Before	-3449
▁Hyades	-3450
▁Island	-3451
▁Rennes	-3452
▁STREET	-3453
▁Square	-3454
▁Sunday	-3455
▁affair	-3456
▁anyway	-3457
▁appear	-3458
▁artist	-3459
▁assist	-3460
▁bottle	-3461
▁calmly	-3462
▁contro	-3463
▁coward	-3464
▁diadem	-3465
▁dining	-3466
▁embarr	-3467
▁entire	-3468
▁escape	-3469
▁fallen	-3470
▁fields	-3471
▁follow	-3472
▁forest	-3473
▁gilded	-3474
▁gravel	-3475
▁gutter	-3476
▁handed	-3477
▁hearts	-3478
▁houses	-3479
▁indeed	-3480
▁insane	-3481
▁intell	-3482
▁inward	-3483
▁itself	-3484
▁leaves	-3485
▁ledger	-3486
▁longed	-3487
▁madame	-3488
▁obtain	-3489
▁partly	-3490
▁pieces	-3491
▁public	-3492
▁regret	-3493
▁renoun	-3494
▁shells	-3495
▁sought	-3496
▁spoken	-3497
▁strong	-3498
▁wheels	-3499
▁wicked	-3500
▁winter	-3501
anically	-3502
kerchief	-3503
▁Barnabé	-3504
▁Captain	-3505
▁Perhaps	-3506
▁Sulpice	-3507
▁ancient	-3508
▁bending	-3509
▁brother	-3510
▁cavalry	-3511
▁command	-3512
▁crimson	-3513
▁despair	-3514
▁display	-3515
▁dreamed	-3516
▁drowned	-3517
▁flashed	-3518
▁gallery	-3519
▁groaned	-3520
▁holding	-3521
▁horizon	-3522
▁instead	-3523
▁introdu	-3524
▁leaning	-3525
▁letters	-3526
▁library	-3527
▁located	-3528
▁married	-3529
▁mystery	-3530
▁parasol	-3531
▁pigeons	-3532
▁portion	-3533
▁pronoun	-3534
▁purring	-3535
▁rapidly	-3536
▁rattled	-3537
▁removed	-3538
▁require	-3539
▁respond	-3540
▁rubbing	-3541
▁sharply	-3542
▁station	-3543
▁success	-3544
▁thanked	-3545
▁trouble	-3546
▁warning	-3547
▁weeping	-3548
▁whisper	-3549
▁writing	-3550
formation	-3551
▁Catholic	-3552
▁Governor	-3553
▁National	-3554
▁acquaint	-3555
▁ambition	-3556
▁bringing	-3557
▁carriage	-3558
▁covering	-3559
▁crossing	-3560
▁dreaming	-3561
▁examined	-3562
▁forehead	-3563
▁gathered	-3564
▁interest	-3565
▁jingling	-3566
▁lingered	-3567
▁military	-3568
▁moorland	-3569
▁northern	-3570
▁precious	-3571
▁presence	-3572
▁scarcely	-3573
▁somewhat	-3574
▁soothing	-3575
▁sparrows	-3576
▁Secretary	-3577
▁afterward	-3578
▁architect	-3579
▁blackbird	-3580
▁boulevard	-3581
▁creatures	-3582
▁muttering	-3583
▁somewhere	-3584
▁stretched	-3585
▁suggested	-3586
ademoiselle	-3587
▁Bouguereau	-3588
▁Reputation	-3589
▁apparently	-3590
▁interested	-3591
▁particular	-3592
▁sculptured	-3593
▁surrounded	-3594
▁themselves	-3595
▁Monseigneur	-3596
▁embroidered	-3597
▁astonishment	-3598
▁distribution	-3599
▁handkerchief	-3600
▁fortifications	-3601
..	-3602
.—	-3603
8.	-3604
?—	-3605
AS	-3606
Be	-3607
CH	-3608
Go	-3609
NT	-3610
NY	-3611
OW	-3612
On	-3613
St	-3614
VE	-3615
Wh	-3616
ax	-3617
ls	-3618
sc	-3619
tr	-3620
uv	-3621
wh	-3622
yn	-3623
▁$	-3624
▁4	-3625
▁6	-3626
Any	-3627
ING	-3628
Mad	-3629
She	-3630
aud	-3631
aul	-3632
box	-3633
erc	-3634
esh	-3635
how	-3636
ici	-3637
ien	-3638
iff	-3639
ips	-3640
isk	-3641
lit	-3642
old	-3643
oup	-3644
rot	-3645
uis	-3646
vet	-3647
wed	-3648
who	-3649
yes	-3650
ête	-3651
▁Am	-3652
▁FI	-3653
▁La	-3654
▁Ru	-3655
▁Sp	-3656
▁cu	-3657
▁gh	-3658
▁tu	-3659
When	-3660
ager	-3661
aked	-3662
anch	-3663
andy	-3664
arge	-3665
asty	-3666
athe	-3667
aves	-3668
band	-3669
cend	-3670
cked	-3671
dogs	-3672
ease	-3673
fast	-3674
ffin	-3675
ilda	-3676
illa	-3677
itan	-3678
ming	-3679
oche	-3680
ords	-3681
ourn	-3682
parn	-3683
ploy	-3684
rand	-3685
rase	-3686
rect	-3687
reds	-3688
rene	-3689
rier	-3690
roll	-3691
rook	-3692
ruit	-3693
serv	-3694
terf	-3695
ters	-3696
tons	-3697
umes	-3698
umph	-3699
unch	-3700
upid	-3701
uted	-3702
vere	-3703
▁189	-3704
▁Bel	-3705
▁Don	-3706
▁FOR	-3707
▁Ham	-3708
▁Med	-3709
▁Ret	-3710
▁Ser	-3711
▁Ste	-3712
▁Tri	-3713
▁aim	-3714
▁ank	-3715
▁bal	-3716
▁bat	-3717
▁bew	-3718
▁der	-3719
▁ele	-3720
▁enj	-3721
▁fal	-3722
▁hol	-3723
▁ice	-3724
▁idi	-3725
▁isn	-3726
▁lin	-3727
▁mem	-3728
▁mud	-3729
▁pas	-3730
▁rid	-3731
▁ris	-3732
▁roy	-3733
▁shr	-3734
▁spy	-3735
▁thy	-3736
▁twi	-3737
▁unl	-3738
▁unm	-3739
▁ver	-3740
▁wet	-3741
ELLOW	-3742
ables	-3743
acher	-3744
affat	-3745
alcul	-3746
ality	-3747
aming	-3748
apers	-3749
aping	-3750
apole	-3751
armed	-3752
atory	-3753
bling	-3754
ersey	-3755
esses	-3756
fting	-3757
iable	-3758
ially	-3759
ignon	-3760
impse	-3761
inite	-3762
isson	-3763
knife	-3764
lfred	-3765
liage	-3766
mblaz	-3767
oming	-3768
omphe	-3769
onstr	-3770
orial	-3771
ories	-3772
osing	-3773
phalt	-3774
quent	-3775
rence	-3776
rigin	-3777
usion	-3778
▁Blee	-3779
▁Café	-3780
▁Cass	-3781
▁Cour	-3782
▁Dame	-3783
▁Good	-3784
▁High	-3785
▁Inst	-3786
▁Love	-3787
▁Park	-3788
▁René	-3789
▁arre	-3790
▁balc	-3791
▁bath	-3792
▁bill	-3793
▁bits	-3794
▁bomb	-3795
▁born	-3796
▁busy	-3797
▁cere	-3798
▁chat	-3799
▁choc	-3800
▁clay	-3801
▁coal	-3802
▁coat	-3803
▁dare	-3804
▁deli	-3805
▁dism	-3806
▁duty	-3807
▁fate	-3808
▁fill	-3809
▁fold	-3810
▁fury	-3811
▁goes	-3812
▁grim	-3813
▁hawk	-3814
▁heed	-3815
▁knee	-3816
▁lace	-3817
▁lake	-3818
▁lies	-3819
▁mant	-3820
▁nest	-3821
▁page	-3822
▁pick	-3823
▁pict	-3824
▁prep	-3825
▁prev	-3826
▁quay	-3827
▁rage	-3828
▁reck	-3829
▁rush	-3830
▁sang	-3831
▁says	-3832
▁show	-3833
▁skir	-3834
▁slou	-3835
▁snar	-3836
▁spik	-3837
▁spir	-3838
▁step	-3839
▁stop	-3840
▁susp	-3841
▁tone	-3842
▁trem	-3843
▁vict	-3844
▁whir	-3845
▁wild	-3846
▁yawn	-3847
ATIONS	-3848
Cécile	-3849
Prince	-3850
atever	-3851
headed	-3852
icious	-3853
inding	-3854
liance	-3855
mented	-3856
ortant	-3857
romise	-3858
ssibly	-3859
tended	-3860
uation	-3861
valesc	-3862
viding	-3863
▁Cupid	-3864
▁Death	-3865
▁Fifth	-3866
▁Imper	-3867
▁North	-3868
▁Notre	-3869
▁Roche	-3870
▁Truth	-3871
▁absor	-3872
▁ahead	-3873
▁allow	-3874
▁amuse	-3875
▁anger	-3876
▁angry	-3877
▁bloss	-3878
▁build	-3879
▁chain	-3880
▁click	-3881
▁clock	-3882
▁contr	-3883
▁deuce	-3884
▁disco	-3885
▁doesn	-3886
▁drops	-3887
▁drunk	-3888
▁dying	-3889
▁eight	-3890
▁estab	-3891
▁exper	-3892
▁fifty	-3893
▁frank	-3894
▁frown	-3895
▁fruit	-3896
▁given	-3897
▁grate	-3898
▁harsh	-3899
▁heads	-3900
▁heels	-3901
▁ident	-3902
▁imper	-3903
▁incon	-3904
▁influ	-3905
▁leads	-3906
▁lodge	-3907
▁match	-3908
▁means	-3909
▁merry	-3910
▁nerve	-3911
▁noise	-3912
▁occur	-3913
▁perch	-3914
▁point	-3915
▁queer	-3916
▁revol	-3917
▁ruins	-3918
▁shake	-3919
▁shell	-3920
▁shrie	-3921
▁slept	-3922
▁slush	-3923
▁south	-3924
▁spray	-3925
▁spurs	-3926
▁stole	-3927
▁takes	-3928
▁third	-3929
▁throw	-3930
▁thumb	-3931
▁tramp	-3932
▁treat	-3933
▁trust	-3934
▁waved	-3935
▁youth	-3936
Nothing	-3937
Project	-3938
oration	-3939
plicity	-3940
▁Around	-3941
▁During	-3942
▁Emblaz	-3943
▁Jersey	-3944
▁Laffat	-3945
▁Mignon	-3946
▁YELLOW	-3947
▁accord	-3948
▁adjust	-3949
▁brilli	-3950
▁carved	-3951
▁chasse	-3952
▁coffin	-3953
▁column	-3954
▁common	-3955
▁congre	-3956
▁curled	-3957
▁danced	-3958
▁deadly	-3959
▁double	-3960
▁driver	-3961
▁employ	-3962
▁exclus	-3963
▁excuse	-3964
▁failed	-3965
▁fierce	-3966
▁fitted	-3967
▁forced	-3968
▁freely	-3969
▁gloved	-3970
▁glowed	-3971
▁greave	-3972
▁hearth	-3973
▁helped	-3974
▁honour	-3975
▁hospit	-3976
▁hurled	-3977
▁insult	-3978
▁jacket	-3979
▁lights	-3980
▁medium	-3981
▁necess	-3982
▁orange	-3983
▁palace	-3984
▁pardon	-3985
▁phrase	-3986
▁places	-3987
▁pocket	-3988
▁poison	-3989
▁polite	-3990
▁priest	-3991
▁quarry	-3992
▁rabbit	-3993
▁regard	-3994
▁ripple	-3995
▁saddle	-3996
▁salute	-3997
▁saucer	-3998
▁secure	-3999
▁series	-4000
▁served	-4001
▁showed	-4002
▁slight	-4003
▁spinet	-4004
▁spread	-4005
▁statue	-4006
▁taught	-4007
▁towers	-4008
▁tranqu	-4009
▁unless	-4010
▁walled	-4011
cription	-4012
istribut	-4013
parnasse	-4014
▁Convent	-4015
▁anxious	-4016
▁anybody	-4017
▁arrange	-4018
▁asphalt	-4019
▁beating	-4020
▁cabinet	-4021
▁ceremon	-4022
▁chamber	-4023
▁circlet	-4024
▁closing	-4025
▁comrade	-4026
▁conclus	-4027
▁correct	-4028
▁coughed	-4029
▁damaged	-4030
▁disease	-4031
▁eastern	-4032
▁emptied	-4033
▁escaped	-4034
▁feather	-4035
▁flapped	-4036
▁foliage	-4037
▁foolish	-4038
▁getting	-4039
▁glimpse	-4040
▁growing	-4041
▁hastily	-4042
▁heavens	-4043
▁hunting	-4044
▁hussars	-4045
▁impress	-4046
▁liberty	-4047
▁license	-4048
▁meadows	-4049
▁nouveau	-4050
▁obliged	-4051
▁parents	-4052
▁peering	-4053
▁perform	-4054
▁pushing	-4055
▁puzzled	-4056
▁running	-4057
▁scarlet	-4058
▁scented	-4059
▁scraped	-4060
▁service	-4061
▁shining	-4062
▁slumber	-4063
▁tossing	-4064
▁towards	-4065
▁travers	-4066
▁triumph	-4067
▁twisted	-4068
▁useless	-4069
▁wearily	-4070
▁whistle	-4071
▁working	-4072
Valentine	-4073
▁Bleecker	-4074
▁Cassilda	-4075
▁Hamilton	-4076
▁Imperial	-4077
▁Legation	-4078
▁Prussian	-4079
▁Republic	-4080
▁Triomphe	-4081
▁attached	-4082
▁betrayed	-4083
▁breaking	-4084
▁coloured	-4085
▁deserted	-4086
▁diamonds	-4087
▁directly	-4088
▁electric	-4089
▁faltered	-4090
▁freezing	-4091
▁glancing	-4092
▁graceful	-4093
▁happened	-4094
▁homesick	-4095
▁intended	-4096
▁kneeling	-4097
▁language	-4098
▁lighting	-4099
▁monsieur	-4100
▁motioned	-4101
▁occupied	-4102
▁physical	-4103
▁promised	-4104
▁quaintly	-4105
▁railroad	-4106
▁remained	-4107
▁renounce	-4108
▁restless	-4109
▁screamed	-4110
▁shivered	-4111
▁stairway	-4112
▁stranger	-4113
▁struggle	-4114
▁terrible	-4115
▁thickets	-4116
▁twilight	-4117
▁Ambulance	-4118
▁Southwark	-4119
▁breakfast	-4120
▁chocolate	-4121
▁convalesc	-4122
▁disappear	-4123
▁expressed	-4124
▁fluttered	-4125
▁gathering	-4126
▁important	-4127
▁incapable	-4128
▁permitted	-4129
▁protected	-4130
▁protested	-4131
▁providing	-4132
▁satisfied	-4133
▁whistling	-4134
▁Emblazoned	-4135
▁breathless	-4136
▁cigarettes	-4137
▁collection	-4138
▁determined	-4139
▁distribute	-4140
▁possession	-4141
▁simplicity	-4142
▁struggling	-4143
▁volunteers	-4144
▁Montparnasse	-4145
▁acquaintance	-4146
▁congregation	-4147
),	-4148
._	-4149
0,	-4150
AL	-4151
Ar	-4152
At	-4153
CE	-4154
Ex	-4155
IG	-4156
Or	-4157
Ph	-4158
RI	-4159
RS	-4160
So	-4161
eb	-4162
ez	-4163
gy	-4164
pr	-4165
sé	-4166
’,	-4167
▁5	-4168
▁9	-4169
▁•	-4170
ENT	-4171
Her	-4172
ITY	-4173
OUR	-4174
One	-4175
Rue	-4176
Was	-4177
_!”	-4178
aks	-4179
ale	-4180
asy	-4181
aur	-4182
aze	-4183
can	-4184
cem	-4185
cst	-4186
did	-4187
eds	-4188
een	-4189
eor	-4190
erk	-4191
esu	-4192
fts	-4193
hab	-4194
hag	-4195
hon	-4196
hou	-4197
ify	-4198
iou	-4199
isc	-4200
isp	-4201
izz	-4202
ket	-4203
key	-4204
loo	-4205
oil	-4206
oir	-4207
oli	-4208
ope	-4209
pet	-4210
rab	-4211
ral	-4212
rat	-4213
reg	-4214
she	-4215
ssy	-4216
tar	-4217
uer	-4218
ule	-4219
uls	-4220
upp	-4221
ury	-4222
▁Ab	-4223
▁Cr	-4224
▁IV	-4225
▁Ri	-4226
▁au	-4227
▁et	-4228
▁iv	-4229
---+	-4230
AIRE	-4231
ARRA	-4232
Look	-4233
Will	-4234
acle	-4235
aken	-4236
alls	-4237
amma	-4238
appy	-4239
ased	-4240
ault	-4241
avin	-4242
bush	-4243
cher	-4244
cles	-4245
coal	-4246
dour	-4247
ffee	-4248
hens	-4249
icle	-4250
iens	-4251
ilet	-4252
iped	-4253
ipes	-4254
isle	-4255
itch	-4256
itiz	-4257
laid	-4258
lets	-4259
line	-4260
liot	-4261
llen	-4262
lley	-4263
lour	-4264
ones	-4265
only	-4266
orde	-4267
ores	-4268
orrr	-4269
otte	-4270
oung	-4271
ples	-4272
pres	-4273
quid	-4274
rice	-4275
rope	-4276
sing	-4277
sper	-4278
stem	-4279
stit	-4280
this	-4281
tory	-4282
ulog	-4283
uous	-4284
uses	-4285
view	-4286
çade	-4287
ôtel	-4288
▁191	-4289
▁ANY	-4290
▁Ald	-4291
▁Any	-4292
▁Can	-4293
▁Che	-4294
▁Dyn	-4295
▁Eug	-4296
▁Fox	-4297
▁Gar	-4298
▁Mem	-4299
▁Mrs	-4300
▁Sud	-4301
▁Tre	-4302
▁Two	-4303
▁ash	-4304
▁ate	-4305
▁avo	-4306
▁bra	-4307
▁bub	-4308
▁coo	-4309
▁dil	-4310
▁dim	-4311
▁div	-4312
▁dod	-4313
▁elo	-4314
▁fil	-4315
▁fle	-4316
▁gas	-4317
▁gru	-4318
▁gud	-4319
▁har	-4320
▁hem	-4321
▁hom	-4322
▁hud	-4323
▁hus	-4324
▁jar	-4325
▁lat	-4326
▁les	-4327
▁mob	-4328
▁non	-4329
▁ped	-4330
▁qua	-4331
▁ram	-4332
▁rod	-4333
▁rum	-4334
▁sab	-4335
▁sav	-4336
▁sew	-4337
▁ske	-4338
▁sne	-4339
▁suc	-4340
▁tum	-4341
▁unh	-4342
▁unp	-4343
▁vac	-4344
▁var	-4345
▁vio	-4346
▁wes	-4347
AIRER	-4348
Boris	-4349
These	-4350
Trent	-4351
Vance	-4352
acken	-4353
aging	-4354
ainch	-4355
ainer	-4356
ainte	-4357
allid	-4358
anite	-4359
antom	-4360
asion	-4361
avily	-4362
aving	-4363
bsite	-4364
dened	-4365
denly	-4366
dress	-4367
eness	-4368
ernal	-4369
idity	-4370
iform	-4371
ights	-4372
iriou	-4373
ising	-4374
itter	-4375
iving	-4376
izzie	-4377
known	-4378
lease	-4379
liffs	-4380
llars	-4381
oodle	-4382
oping	-4383
ority	-4384
orted	-4385
orthy	-4386
oting	-4387
ourer	-4388
oused	-4389
ppled	-4390
ropol	-4391
steps	-4392
tyard	-4393
uffle	-4394
ulous	-4395
unate	-4396
urely	-4397
uries	-4398
▁Down	-4399
▁Fate	-4400
▁Fort	-4401
▁Gare	-4402
▁Jove	-4403
▁Look	-4404
▁Mask	-4405
▁Mass	-4406
▁Next	-4407
▁Over	-4408
▁Well	-4409
▁able	-4410
▁ages	-4411
▁anim	-4412
▁appl	-4413
▁auth	-4414
▁bare	-4415
▁beef	-4416
▁belt	-4417
▁boat	-4418
▁card	-4419
▁cart	-4420
▁cock	-4421
▁cond	-4422
▁craw	-4423
▁cred	-4424
▁cush	-4425
▁dawn	-4426
▁dece	-4427
▁dine	-4428
▁east	-4429
▁ecst	-4430
▁exec	-4431
▁eyed	-4432
▁fees	-4433
▁flew	-4434
▁food	-4435
▁garr	-4436
▁glim	-4437
▁goin	-4438
▁hang	-4439
▁hate	-4440
▁hell	-4441
▁hill	-4442
▁huge	-4443
▁insp	-4444
▁mech	-4445
▁mess	-4446
▁mood	-4447
▁opal	-4448
▁opin	-4449
▁pour	-4450
▁powd	-4451
▁prop	-4452
▁puff	-4453
▁rear	-4454
▁ring	-4455
▁rive	-4456
▁road	-4457
▁scan	-4458
▁seal	-4459
▁sear	-4460
▁sell	-4461
▁sham	-4462
▁shel	-4463
▁shru	-4464
▁sill	-4465
▁soup	-4466
▁spun	-4467
▁subs	-4468
▁talk	-4469
▁thee	-4470
▁ting	-4471
▁town	-4472
▁tray	-4473
▁twin	-4474
▁vile	-4475
▁vill	-4476
▁ward	-4477
▁warn	-4478
▁whip	-4479
▁whit	-4480
▁wond	-4481
▁writ	-4482
▁yach	-4483
anches	-4484
andall	-4485
atting	-4486
ceeded	-4487
cember	-4488
ensive	-4489
ferred	-4490
hagard	-4491
iently	-4492
ierrot	-4493
illery	-4494
minded	-4495
rapped	-4496
rehens	-4497
rified	-4498
uffled	-4499
vidual	-4500
▁Again	-4501
▁Below	-4502
▁Burke	-4503
▁Hôtel	-4504
▁March	-4505
▁Never	-4506
▁REPUT	-4507
▁These	-4508
▁Those	-4509
▁Vavin	-4510
▁WARRA	-4511
▁Where	-4512
▁Winds	-4513
▁aisle	-4514
▁altar	-4515
▁badly	-4516
▁bland	-4517
▁brain	-4518
▁broad	-4519
▁cause	-4520
▁chuck	-4521
▁claws	-4522
▁clust	-4523
▁conse	-4524
▁crazy	-4525
▁daily	-4526
▁decor	-4527
▁discu	-4528
▁dread	-4529
▁drive	-4530
▁drove	-4531
▁drows	-4532
▁eager	-4533
▁eaten	-4534
▁elbow	-4535
▁enjoy	-4536
▁entit	-4537
▁envel	-4538
▁equip	-4539
▁eulog	-4540
▁exerc	-4541
▁exhau	-4542
▁faith	-4543
▁ferme	-4544
▁fires	-4545
▁flame	-4546
▁flank	-4547
▁flesh	-4548
▁force	-4549
▁gaunt	-4550
▁gazed	-4551
▁ghost	-4552
▁grove	-4553
▁holes	-4554
▁hoped	-4555
▁hurry	-4556
▁idiot	-4557
▁intim	-4558
▁keeps	-4559
▁lamps	-4560
▁large	-4561
▁looks	-4562
▁loung	-4563
▁lunch	-4564
▁march	-4565
▁moons	-4566
▁neigh	-4567
▁ninet	-4568
▁overt	-4569
▁parap	-4570
▁party	-4571
▁piece	-4572
▁posed	-4573
▁proof	-4574
▁prove	-4575
▁reass	-4576
▁reser	-4577
▁rings	-4578
▁sabre	-4579
▁scorn	-4580
▁sheet	-4581
▁sniff	-4582
▁stamp	-4583
▁surpr	-4584
▁teach	-4585
▁theat	-4586
▁thigh	-4587
▁toast	-4588
▁twice	-4589
▁wagon	-4590
▁waist	-4591
▁woods	-4592
General	-4593
acement	-4594
agement	-4595
ammered	-4596
apoleon	-4597
ardment	-4598
autiful	-4599
chester	-4600
cretion	-4601
ificial	-4602
inished	-4603
ittered	-4604
minable	-4605
ordered	-4606
perhaps	-4607
quarter	-4608
reating	-4609
ressing	-4610
ruction	-4611
ulances	-4612
▁Alfred	-4613
▁Champs	-4614
▁Church	-4615
▁Doctor	-4616
▁Eugene	-4617
▁Lizzie	-4618
▁Medici	-4619
▁Michel	-4620
▁Pallid	-4621
▁Public	-4622
▁Sainte	-4623
▁accent	-4624
▁accomp	-4625
▁agreed	-4626
▁anyone	-4627
▁apolog	-4628
▁arches	-4629
▁avenue	-4630
▁beauty	-4631
▁blazed	-4632
▁bother	-4633
▁brandy	-4634
▁bricks	-4635
▁bugles	-4636
▁calcul	-4637
▁choked	-4638
▁circle	-4639
▁cliffs	-4640
▁coffee	-4641
▁comput	-4642
▁destro	-4643
▁devout	-4644
▁eating	-4645
▁endure	-4646
▁fairly	-4647
▁famili	-4648
▁favour	-4649
▁façade	-4650
▁floral	-4651
▁format	-4652
▁former	-4653
▁garret	-4654
▁glared	-4655
▁gloomy	-4656
▁health	-4657
▁heliot	-4658
▁hidden	-4659
▁holder	-4660
▁humour	-4661
▁indign	-4662
▁interp	-4663
▁invest	-4664
▁jingle	-4665
▁joined	-4666
▁joyous	-4667
▁killed	-4668
▁latest	-4669
▁length	-4670
▁liquid	-4671
▁loomed	-4672
▁mellow	-4673
▁merely	-4674
▁models	-4675
▁months	-4676
▁morals	-4677
▁mostly	-4678
▁native	-4679
▁nerves	-4680
▁nights	-4681
▁origin	-4682
▁parted	-4683
▁patter	-4684
▁petals	-4685
▁pigeon	-4686
▁points	-4687
▁poodle	-4688
▁posted	-4689
▁purple	-4690
▁ragged	-4691
▁remain	-4692
▁repres	-4693
▁rested	-4694
▁reward	-4695
▁serene	-4696
▁sermon	-4697
▁settle	-4698
▁shreds	-4699
▁signed	-4700
▁silhou	-4701
▁silken	-4702
▁single	-4703
▁skelet	-4704
▁skirts	-4705
▁snuffy	-4706
▁sounds	-4707
▁states	-4708
▁status	-4709
▁stayed	-4710
▁stirru	-4711
▁strike	-4712
▁surged	-4713
▁system	-4714
▁threat	-4715
▁toilet	-4716
▁troops	-4717
▁vaguer	-4718
▁vanity	-4719
▁volley	-4720
▁washed	-4721
▁whined	-4722
▁whiter	-4723
▁wooden	-4724
▁wouldn	-4725
Clifford	-4726
Nonsense	-4727
efinable	-4728
entioned	-4729
ertainly	-4730
ervation	-4731
terflies	-4732
utations	-4733
▁Boulant	-4734
▁Buttons	-4735
▁Dynasty	-4736
▁Frainch	-4737
▁Phantom	-4738
▁aroused	-4739
▁artists	-4740
▁ashamed	-4741
▁balcony	-4742
▁barrier	-4743
▁bearing	-4744
▁blowing	-4745
▁bracken	-4746
▁burning	-4747
▁circles	-4748
▁clamber	-4749
▁clatter	-4750
▁collect	-4751
▁colours	-4752
▁confess	-4753
▁control	-4754
▁convict	-4755
▁copying	-4756
▁cordial	-4757
▁counted	-4758
▁crowded	-4759
▁crystal	-4760
▁descend	-4761
▁dignity	-4762
▁disgust	-4763
▁dressed	-4764
▁driving	-4765
▁ecstasy	-4766
▁exactly	-4767
▁examine	-4768
▁fashion	-4769
▁finding	-4770
▁flights	-4771
▁foreign	-4772
▁general	-4773
▁granite	-4774
▁greatly	-4775
▁grinned	-4776
▁healthy	-4777
▁heavily	-4778
▁history	-4779
▁huddled	-4780
▁husband	-4781
▁intense	-4782
▁invited	-4783
▁landing	-4784
▁leaping	-4785
▁managed	-4786
▁miracle	-4787
▁mission	-4788
▁oppress	-4789
▁pleased	-4790
▁prosper	-4791
▁protect	-4792
▁putting	-4793
▁quickly	-4794
▁railing	-4795
▁raising	-4796
▁realize	-4797
▁recover	-4798
▁resting	-4799
▁shaking	-4800
▁shortly	-4801
▁signals	-4802
▁snarled	-4803
▁sparkle	-4804
▁studios	-4805
▁subject	-4806
▁substit	-4807
▁surface	-4808
▁suspect	-4809
▁swallow	-4810
▁talking	-4811
▁tearing	-4812
▁telling	-4813
▁uniform	-4814
▁unknown	-4815
▁uttered	-4816
▁vicious	-4817
▁violent	-4818
▁wearing	-4819
▁website	-4820
▁western	-4821
Geneviève	-4822
▁December	-4823
▁Memorial	-4824
▁Minister	-4825
▁REPAIRER	-4826
▁Retainer	-4827
▁Suddenly	-4828
▁absorbed	-4829
▁accident	-4830
▁addition	-4831
▁admitted	-4832
▁advanced	-4833
▁armourer	-4834
▁caressed	-4835
▁charcoal	-4836
▁cheerful	-4837
▁complete	-4838
▁consider	-4839
▁corporal	-4840
▁crouched	-4841
▁daughter	-4842
▁dragging	-4843
▁editions	-4844
▁entirely	-4845
▁entrance	-4846
▁falconer	-4847
▁feverish	-4848
▁galloped	-4849
▁garrison	-4850
▁groaning	-4851
▁hastened	-4852
▁infernal	-4853
▁instinct	-4854
▁intellig	-4855
▁jewelled	-4856
▁lengthen	-4857
▁mounting	-4858
▁occurred	-4859
▁organist	-4860
▁painting	-4861
▁personal	-4862
▁possibly	-4863
▁preacher	-4864
▁produced	-4865
▁property	-4866
▁provided	-4867
▁reckless	-4868
▁repaired	-4869
▁repassed	-4870
▁shooting	-4871
▁silently	-4872
▁solemnly	-4873
▁solution	-4874
▁streamed	-4875
▁studying	-4876
▁stumbled	-4877
▁suffered	-4878
▁supposed	-4879
▁threaded	-4880
▁troopers	-4881
▁troubles	-4882
▁wheeling	-4883
▁yearning	-4884
▁President	-4885
▁Something	-4886
▁addressed	-4887
▁amusement	-4888
▁anxiously	-4889
▁artillery	-4890
▁attempted	-4891
▁brilliant	-4892
▁chestnuts	-4893
▁confusion	-4894
▁conscious	-4895
▁continent	-4896
▁courtyard	-4897
▁crackling	-4898
▁dangerous	-4899
▁defective	-4900
▁delicious	-4901
▁desperate	-4902
▁discovery	-4903
▁examining	-4904
▁existence	-4905
▁fireplace	-4906
▁flattered	-4907
▁increased	-4908
▁influence	-4909
▁innocence	-4910
▁interview	-4911
▁mentioned	-4912
▁miserable	-4913
▁moonlight	-4914
▁necessary	-4915
▁ourselves	-4916
▁perfectly	-4917
▁prevented	-4918
▁questions	-4919
▁reflected	-4920
▁repeating	-4921
▁scattered	-4922
▁searching	-4923
▁sensation	-4924
▁seriously	-4925
▁squatting	-4926
▁struggled	-4927
▁suffering	-4928
▁artificial	-4929
▁bitterness	-4930
▁compliance	-4931
▁confession	-4932
▁displaying	-4933
▁downstairs	-4934
▁enthusiasm	-4935
▁everywhere	-4936
▁heliotrope	-4937
▁increasing	-4938
▁individual	-4939
▁thoroughly	-4940
▁threatened	-4941
-----------+	-4942
▁Information	-4943
▁REPUTATIONS	-4944
▁Westchester	-4945
▁acknowledge	-4946
▁bombardment	-4947
▁distributed	-4948
▁embarrassed	-4949
▁exquisitely	-4950
▁inclination	-4951
▁information	-4952
▁wonderfully	-4953
▁architecture	-4954
▁interminable	-4955
▁mechanically	-4956
▁requirements	-4957
,’	-4958
.7	-4959
.9	-4960
70	-4961
AB	-4962
AD	-4963
AG	-4964
AT	-4965
As	-4966
CI	-4967
Dr	-4968
JE	-4969
LA	-4970
RÉ	-4971
UE	-4972
UR	-4973
Wa	-4974
ah	-4975
bl	-4976
fl	-4977
go	-4978
jo	-4979
lo	-4980
mi	-4981
mn	-4982
ni	-4983
pi	-4984
pâ	-4985
rd	-4986
tt	-4987
yx	-4988
▁-	-4989
.9.	-4990
ARA	-4991
ILD	-4992
IND	-4993
MIT	-4994
RÉE	-4995
THE	-4996
_,”	-4997
aby	-4998
acy	-4999
▁É	-5000
000	-5001
ILL	-5002
OIS	-5003
adi	-5004
ado	-5005
aly	-5006
ann	-5007
aug	-5008
awd	-5009
bid	-5010
bon	-5011
cur	-5012
dog	-5013
era	-5014
esy	-5015
hem	-5016
hib	-5017
hip	-5018
ipt	-5019
irm	-5020
leg	-5021
lla	-5022
lle	-5023
nam	-5024
nds	-5025
off	-5026
olf	-5027
oll	-5028
oon	-5029
opy	-5030
osp	-5031
phy	-5032
pot	-5033
ppe	-5034
sat	-5035
say	-5036
tte	-5037
uds	-5038
ugn	-5039
uit	-5040
ulf	-5041
ulg	-5042
vre	-5043
why	-5044
zed	-5045
épi	-5046
éri	-5047
œuv	-5048
▁2.	-5049
▁AG	-5050
▁Ah	-5051
▁Av	-5052
▁Me	-5053
▁Sh	-5054
▁Sé	-5055
▁TO	-5056
▁az	-5057
▁ce	-5058
▁ep	-5059
▁je	-5060
▁ou	-5061
▁ur	-5062
Alec	-5063
BERG	-5064
Cour	-5065
HELL	-5066
JECT	-5067
Just	-5068
NGER	-5069
Poor	-5070
Send	-5071
Stab	-5072
Tess	-5073
UTEN	-5074
abby	-5075
ache	-5076
acin	-5077
aill	-5078
ails	-5079
aine	-5080
aire	-5081
aiss	-5082
akes	-5083
alif	-5084
alty	-5085
anct	-5086
apid	-5087
aran	-5088
atur	-5089
bage	-5090
beam	-5091
bits	-5092
blem	-5093
cast	-5094
cell	-5095
clot	-5096
come	-5097
dest	-5098
each	-5099
.1.	-5100
.3,	-5101
.3.	-5102
Dieu	-5103
ELLE	-5104
aldi	-5105
comm	-5106
empl	-5107
eper	-5108
eral	-5109
ergy	-5110
fare	-5111
fish	-5112
good	-5113
hire	-5114
iate	-5115
iers	-5116
ieux	-5117
igor	-5118
imin	-5119
inth	-5120
irty	-5121
kill	-5122
ldom	-5123
ldor	-5124
leur	-5125
mark	-5126
mart	-5127
mbre	-5128
must	-5129
nons	-5130
oise	-5131
ompl	-5132
oons	-5133
orts	-5134
orus	-5135
oted	-5136
oton	-5137
over	-5138
ower	-5139
poor	-5140
rant	-5141
rets	-5142
rist	-5143
robe	-5144
sill	-5145
teen	-5146
uing	-5147
ural	-5148
vert	-5149
vive	-5150
walk	-5151
will	-5152
wood	-5153
work	-5154
▁192	-5155
▁Ang	-5156
▁BAR	-5157
▁CON	-5158
▁Cab	-5159
▁DAM	-5160
▁DEM	-5161
▁DIS	-5162
▁Dem	-5163
▁Ely	-5164
▁Had	-5165
▁Laz	-5166
▁Let	-5167
▁Met	-5168
▁Mob	-5169
▁Mur	-5170
▁NOT	-5171
▁Old	-5172
▁RUE	-5173
▁Red	-5174
▁Six	-5175
▁Val	-5176
▁Van	-5177
▁Woo	-5178
▁abl	-5179
▁age	-5180
▁ast	-5181
▁bab	-5182
▁ber	-5183
▁bon	-5184
▁cli	-5185
▁cri	-5186
▁del	-5187
▁ecc	-5188
▁esp	-5189
▁fem	-5190
▁fre	-5191
▁fun	-5192
▁ger	-5193
▁hig	-5194
▁jaw	-5195
▁jet	-5196
▁lam	-5197
▁lip	-5198
▁lux	-5199
RST	-5200
pât	-5201
foli	-5202
sées	-5203
▁ivy	-5204
▁mal	-5205
▁neg	-5206
▁odd	-5207
▁pan	-5208
▁ple	-5209
▁pot	-5210
▁pun	-5211
▁qui	-5212
▁rug	-5213
▁sch	-5214
▁sez	-5215
▁soc	-5216
▁som	-5217
▁son	-5218
▁spl	-5219
▁sup	-5220
▁sym	-5221
▁tes	-5222
▁toi	-5223
▁top	-5224
▁veh	-5225
▁vel	-5226
▁wid	-5227
▁wre	-5228
Every	-5229
ILITY	-5230
Orsay	-5231
Three	-5232
Tiens	-5233
acity	-5234
acter	-5235
adise	-5236
ainty	-5237
airer	-5238
aires	-5239
alcon	-5240
aling	-5241
allic	-5242
ammed	-5243
antry	-5244
apsed	-5245
athom	-5246
azing	-5247
brook	-5248
cheon	-5249
ckets	-5250
corde	-5251
cribe	-5252
cules	-5253
eding	-5254
efied	-5255
geous	-5256
ghter	-5257
gment	-5258
hered	-5259
house	-5260
icket	-5261
idges	-5262
imney	-5263
inary	-5264
ingly	-5265
lined	-5266
mered	-5267
never	-5268
oisie	-5269
ooded	-5270
oring	-5271
ortun	-5272
oseph	-5273
othed	-5274
ounge	-5275
panes	-5276
pless	-5277
rande	-5278
reech	-5279
ropri	-5280
roval	-5281
stood	-5282
there	-5283
these	-5284
toned	-5285
ucked	-5286
udder	-5287
udent	-5288
ulips	-5289
veyed	-5290
vious	-5291
yance	-5292
▁Alas	-5293
▁Beef	-5294
▁Bois	-5295
▁Chau	-5296
▁Comm	-5297
▁Comp	-5298
▁Cont	-5299
MITED	-5300
mière	-5301
▁Dieu	-5302
▁Five	-5303
▁Gard	-5304
▁Geor	-5305
▁Hope	-5306
▁Jesu	-5307
▁KING	-5308
▁More	-5309
▁PARA	-5310
▁Pass	-5311
▁Past	-5312
▁Pell	-5313
▁Poor	-5314
▁Quai	-5315
▁STRA	-5316
▁Song	-5317
▁Stey	-5318
▁Suis	-5319
▁THIS	-5320
▁army	-5321
▁bars	-5322
▁beau	-5323
▁bees	-5324
▁bree	-5325
▁buck	-5326
▁cabs	-5327
▁capt	-5328
▁chin	-5329
▁chum	-5330
▁clam	-5331
▁clen	-5332
▁comb	-5333
▁conn	-5334
▁date	-5335
▁defi	-5336
▁diff	-5337
▁dogs	-5338
▁drop	-5339
▁duck	-5340
▁dyed	-5341
▁ease	-5342
▁ench	-5343
▁ends	-5344
▁eyeb	-5345
▁eyel	-5346
▁fade	-5347
▁fain	-5348
▁fant	-5349
▁farm	-5350
▁fern	-5351
▁file	-5352
▁foam	-5353
▁fren	-5354
▁gang	-5355
▁gaud	-5356
▁glow	-5357
▁gown	-5358
▁grad	-5359
▁helm	-5360
▁hoof	-5361
▁hoop	-5362
▁hues	-5363
▁join	-5364
▁jour	-5365
▁keen	-5366
▁keys	-5367
▁kick	-5368
▁knot	-5369
▁képi	-5370
▁lain	-5371
▁lazy	-5372
▁lead	-5373
▁leaf	-5374
▁leis	-5375
▁lest	-5376
▁limb	-5377
▁loaf	-5378
▁lock	-5379
▁lose	-5380
▁mail	-5381
▁main	-5382
▁meat	-5383
▁mild	-5384
▁neat	-5385
▁onyx	-5386
▁owns	-5387
▁pall	-5388
▁palm	-5389
▁pang	-5390
▁paws	-5391
▁peas	-5392
▁plan	-5393
▁plum	-5394
▁pray	-5395
▁prec	-5396
▁prey	-5397
▁priv	-5398
▁radi	-5399
▁rare	-5400
▁rats	-5401
▁reel	-5402
▁refe	-5403
▁reve	-5404
▁roar	-5405
▁robe	-5406
▁rode	-5407
▁rows	-5408
▁sack	-5409
▁sarc	-5410
▁save	-5411
▁scru	-5412
▁shoe	-5413
▁sigh	-5414
▁slap	-5415
▁snat	-5416
▁suic	-5417
▁sust	-5418
▁swam	-5419
▁symp	-5420
▁tall	-5421
▁temp	-5422
▁term	-5423
▁todd	-5424
▁tort	-5425
▁tout	-5426
▁turm	-5427
▁unex	-5428
▁user	-5429
▁vain	-5430
▁vast	-5431
▁vent	-5432
▁verm	-5433
▁vesp	-5434
▁vibr	-5435
▁virt	-5436
▁vist	-5437
▁warr	-5438
▁wept	-5439
▁whim	-5440
▁wine	-5441
▁wing	-5442
▁wolf	-5443
▁worm	-5444
▁wret	-5445
▁yell	-5446
Americ	-5447
Faster	-5448
Herald	-5449
Jeanne	-5450
Philip	-5451
Tessie	-5452
alties	-5453
anging	-5454
apping	-5455
arming	-5456
assets	-5457
atters	-5458
bridge	-5459
ealing	-5460
earing	-5461
ebaran	-5462
ements	-5463
entric	-5464
hemian	-5465
ibaldi	-5466
idence	-5467
ifully	-5468
iments	-5469
ipping	-5470
issard	-5471
itched	-5472
iterer	-5473
killer	-5474
lecked	-5475
lettes	-5476
leurre	-5477
lished	-5478
martre	-5479
mbling	-5480
ocking	-5481
omfort	-5482
oughed	-5483
ounded	-5484
ounter	-5485
ournon	-5486
regard	-5487
rences	-5488
rolled	-5489
ternal	-5490
utions	-5491
utters	-5492
verend	-5493
▁AGREE	-5494
▁About	-5495
▁Avons	-5496
▁Broad	-5497
▁Count	-5498
▁Court	-5499
▁DAMAG	-5500
▁Eldor	-5501
▁FIRST	-5502
▁Franc	-5503
▁GUTEN	-5504
▁Lorrr	-5505
▁River	-5506
▁SHELL	-5507
▁Shall	-5508
▁Sieur	-5509
▁Sénat	-5510
▁Three	-5511
▁Under	-5512
▁aided	-5513
▁alert	-5514
▁ankle	-5515
▁antic	-5516
▁appet	-5517
▁apply	-5518
▁armed	-5519
▁ashes	-5520
▁azure	-5521
▁beast	-5522
▁blind	-5523
▁block	-5524
▁bolts	-5525
▁boots	-5526
▁bould	-5527
▁brass	-5528
▁brick	-5529
▁brisk	-5530
▁calls	-5531
▁chalk	-5532
▁check	-5533
▁chime	-5534
▁choir	-5535
▁cigar	-5536
▁cough	-5537
▁curly	-5538
▁curse	-5539
▁deriv	-5540
▁ditch	-5541
▁domes	-5542
▁drank	-5543
▁drink	-5544
▁droll	-5545
▁drums	-5546
▁espec	-5547
▁fight	-5548
▁final	-5549
▁flatt	-5550
▁fleet	-5551
▁float	-5552
▁flush	-5553
▁forms	-5554
▁glove	-5555
▁grand	-5556
▁grasp	-5557
▁greet	-5558
▁guide	-5559
▁haste	-5560
▁hated	-5561
▁haunt	-5562
▁heath	-5563
▁hopes	-5564
▁immed	-5565
▁inhab	-5566
▁knelt	-5567
▁lands	-5568
▁lawns	-5569
▁level	-5570
▁limbs	-5571
▁links	-5572
▁lived	-5573
▁loads	-5574
▁loose	-5575
▁mater	-5576
▁meant	-5577
▁misty	-5578
▁month	-5579
▁mused	-5580
▁named	-5581
▁noble	-5582
▁noisy	-5583
▁noose	-5584
▁offer	-5585
▁ornam	-5586
▁panes	-5587
▁pause	-5588
▁peace	-5589
▁piled	-5590
▁pique	-5591
▁pools	-5592
▁pound	-5593
▁prete	-5594
▁punct	-5595
▁quays	-5596
▁quill	-5597
▁reapp	-5598
▁relax	-5599
▁restr	-5600
▁retic	-5601
▁rever	-5602
▁ridic	-5603
▁risen	-5604
▁rolls	-5605
▁salad	-5606
▁sewer	-5607
▁shade	-5608
▁shape	-5609
▁shelf	-5610
▁shone	-5611
▁shore	-5612
▁skies	-5613
▁solic	-5614
▁solid	-5615
▁spare	-5616
▁speed	-5617
▁splin	-5618
▁store	-5619
▁storm	-5620
▁stout	-5621
▁stuff	-5622
▁swish	-5623
▁swore	-5624
▁teleg	-5625
▁thong	-5626
▁tires	-5627
▁tower	-5628
▁track	-5629
▁trick	-5630
▁trump	-5631
▁turqu	-5632
▁umbre	-5633
▁urged	-5634
▁veins	-5635
▁viper	-5636
▁waves	-5637
▁weeks	-5638
▁whirl	-5639
▁winds	-5640
▁wiped	-5641
▁wrath	-5642
▁wreat	-5643
▁write	-5644
Exactly	-5645
Madonna	-5646
OISELLE	-5647
Perhaps	-5648
Stabbed	-5649
acinths	-5650
aurants	-5651
ception	-5652
fashion	-5653
fficult	-5654
itching	-5655
itizens	-5656
leasant	-5657
licable	-5658
looking	-5659
ndering	-5660
olation	-5661
otonous	-5662
ugnance	-5663
unctory	-5664
ustomed	-5665
versack	-5666
▁Asylum	-5667
▁BARRÉE	-5668
▁Behind	-5669
▁Cabane	-5670
▁Easter	-5671
▁Fourth	-5672
▁Grande	-5673
▁Indian	-5674
▁Joseph	-5675
▁Lazare	-5676
▁Murphy	-5677
▁Palais	-5678
▁Philip	-5679
▁Piriou	-5680
▁Toward	-5681
▁abroad	-5682
▁action	-5683
▁active	-5684
▁advice	-5685
▁afield	-5686
▁almond	-5687
▁argued	-5688
▁asylum	-5689
▁belled	-5690
▁bottom	-5691
▁bowing	-5692
▁boyish	-5693
▁branch	-5694
▁chairs	-5695
▁choose	-5696
▁chords	-5697
▁chorus	-5698
▁claims	-5699
▁client	-5700
▁collar	-5701
▁corrid	-5702
▁couldn	-5703
▁credit	-5704
▁damage	-5705
▁demain	-5706
▁dishon	-5707
▁donate	-5708
▁driven	-5709
▁drives	-5710
▁echoes	-5711
▁effect	-5712
▁entity	-5713
▁facing	-5714
▁famous	-5715
▁fathom	-5716
▁feared	-5717
▁feeble	-5718
▁flamed	-5719
▁flared	-5720
▁folded	-5721
▁formed	-5722
▁frozen	-5723
▁gasped	-5724
▁glided	-5725
▁govern	-5726
▁grassy	-5727
▁hearty	-5728
▁highly	-5729
▁hollow	-5730
▁horrid	-5731
▁hunger	-5732
▁incomp	-5733
▁inlaid	-5734
▁jesses	-5735
▁jewels	-5736
▁leaped	-5737
▁lilies	-5738
▁lounge	-5739
▁making	-5740
▁mantel	-5741
▁masses	-5742
▁memory	-5743
▁mental	-5744
▁misery	-5745
▁missed	-5746
▁modern	-5747
▁morsel	-5748
▁needle	-5749
▁nurses	-5750
▁occupy	-5751
▁office	-5752
▁online	-5753
▁packed	-5754
▁papers	-5755
▁paying	-5756
▁pedest	-5757
▁peered	-5758
▁plaint	-5759
▁poking	-5760
▁prefer	-5761
▁prison	-5762
▁prohib	-5763
▁purest	-5764
▁purity	-5765
▁pushed	-5766
▁rattle	-5767
▁recall	-5768
▁recoll	-5769
▁refuse	-5770
▁result	-5771
▁roused	-5772
▁rushed	-5773
▁sabots	-5774
▁sacrif	-5775
▁savage	-5776
▁seldom	-5777
▁select	-5778
▁sentry	-5779
▁shrank	-5780
▁signal	-5781
▁simple	-5782
▁sketch	-5783
▁sleepy	-5784
▁sobbed	-5785
▁sombre	-5786
▁speaks	-5787
▁spires	-5788
▁stands	-5789
▁stones	-5790
▁strain	-5791
▁strode	-5792
▁stroll	-5793
▁struct	-5794
▁sunken	-5795
▁supper	-5796
▁surely	-5797
▁swears	-5798
▁tallow	-5799
▁termed	-5800
▁territ	-5801
▁tipped	-5802
▁tonton	-5803
▁traced	-5804
▁triang	-5805
▁tulips	-5806
▁uncons	-5807
▁vision	-5808
▁volume	-5809
▁warmly	-5810
▁waters	-5811
▁weight	-5812
▁whence	-5813
▁wicket	-5814
▁winged	-5815
▁wrists	-5816
▁yawned	-5817
American	-5818
apidated	-5819
ittering	-5820
ointment	-5821
onstrate	-5822
quarters	-5823
ulsively	-5824
▁Another	-5825
▁Chester	-5826
▁Elysées	-5827
▁Foxhall	-5828
▁However	-5829
▁LIMITED	-5830
▁Marotte	-5831
▁Marquis	-5832
▁PROJECT	-5833
▁Promise	-5834
▁Randall	-5835
▁Russian	-5836
▁Through	-5837
▁Tournon	-5838
▁Wooster	-5839
▁accompl	-5840
▁account	-5841
▁advised	-5842
▁amiable	-5843
▁archway	-5844
▁avoided	-5845
▁bathing	-5846
▁binding	-5847
▁breasts	-5848
▁bridges	-5849
▁caprice	-5850
▁captain	-5851
▁casting	-5852
▁chancel	-5853
▁chatted	-5854
▁chimney	-5855
▁claimed	-5856
▁closely	-5857
▁clothed	-5858
▁clouded	-5859
▁columns	-5860
▁compare	-5861
▁complac	-5862
▁complic	-5863
▁concern	-5864
▁consequ	-5865
▁content	-5866
▁crawled	-5867
▁created	-5868
▁crushed	-5869
▁current	-5870
▁curtain	-5871
▁dearest	-5872
▁declare	-5873
▁deliber	-5874
▁discuss	-5875
▁dislike	-5876
▁dismant	-5877
▁dollars	-5878
▁doubted	-5879
▁drifted	-5880
▁efforts	-5881
▁extreme	-5882
▁figures	-5883
▁fishing	-5884
▁frankly	-5885
▁frowned	-5886
▁grabbed	-5887
▁grasped	-5888
▁gudgeon	-5889
▁harshly	-5890
▁hearing	-5891
▁horrors	-5892
▁journey	-5893
▁judging	-5894
▁leather	-5895
▁letting	-5896
▁limited	-5897
▁lounged	-5898
▁lunatic	-5899
▁massive	-5900
▁matters	-5901
▁meaning	-5902
▁musical	-5903
▁objects	-5904
▁opinion	-5905
▁outcast	-5906
▁painful	-5907
▁parlour	-5908
▁pausing	-5909
▁pennons	-5910
▁picture	-5911
▁pitched	-5912
▁plaster	-5913
▁pouring	-5914
▁prevent	-5915
▁printed	-5916
▁problem	-5917
▁process	-5918
▁protest	-5919
▁replace	-5920
▁reserve	-5921
▁respons	-5922
▁rolling	-5923
▁screech	-5924
▁seconds	-5925
▁seizing	-5926
▁selfish	-5927
▁sending	-5928
▁serpent	-5929
▁shadowy	-5930
▁shelter	-5931
▁shocked	-5932
▁shudder	-5933
▁silvery	-5934
▁slammed	-5935
▁smashed	-5936
▁snapped	-5937
▁soaring	-5938
▁species	-5939
▁spirits	-5940
▁squares	-5941
▁stables	-5942
▁statues	-5943
▁steamer	-5944
▁studied	-5945
▁suggest	-5946
▁sunbeam	-5947
▁supreme	-5948
▁surging	-5949
▁tassets	-5950
▁tatters	-5951
▁timidly	-5952
▁tremble	-5953
▁tumbled	-5954
▁turmoil	-5955
▁unhappy	-5956
▁ushered	-5957
▁usually	-5958
▁vaguely	-5959
▁vehicle	-5960
▁vespers	-5961
▁violets	-5962
▁visited	-5963
▁volumes	-5964
▁wavered	-5965
▁whirled	-5966
▁wounded	-5967
▁wrapped	-5968
▁writhed	-5969
Certainly	-5970
asionally	-5971
fashioned	-5972
fferently	-5973
rehension	-5974
ropolitan	-5975
servatory	-5976
▁Broadway	-5977
▁Concorde	-5978
▁Eldorado	-5979
▁Hercules	-5980
▁Napoleon	-5981
▁Paradise	-5982
▁Repairer	-5983
▁Reverend	-5984
▁STRANGER	-5985
▁Whatever	-5986
▁accepted	-5987
▁accompan	-5988
▁anywhere	-5989
▁applause	-5990
▁approval	-5991
▁arrested	-5992
▁beauties	-5993
▁becoming	-5994
▁believed	-5995
▁blossoms	-5996
▁branches	-5997
▁bulldogs	-5998
▁canvases	-5999
▁ceremony	-6000
▁clenched	-6001
▁comrades	-6002
▁constant	-6003
▁contempl	-6004
▁courtesy	-6005
▁creating	-6006
▁creeping	-6007
▁crippled	-6008
▁crowding	-6009
▁cuissard	-6010
▁daylight	-6011
▁definite	-6012
▁demented	-6013
▁departed	-6014
▁desolate	-6015
▁dreadful	-6016
▁drifting	-6017
▁dropping	-6018
▁eloquent	-6019
▁entering	-6020
▁entitled	-6021
▁exercise	-6022
▁extended	-6023
▁faithful	-6024
▁familiar	-6025
▁feathers	-6026
▁filtered	-6027
▁flashing	-6028
▁flowered	-6029
▁gloomily	-6030
▁goodness	-6031
▁gorgeous	-6032
▁harmless	-6033
▁heartily	-6034
▁helpless	-6035
▁honestly	-6036
▁hopeless	-6037
▁horrible	-6038
▁identify	-6039
▁included	-6040
▁inconven	-6041
▁increase	-6042
▁informed	-6043
▁insultin	-6044
▁laughter	-6045
▁loiterer	-6046
▁marriage	-6047
▁material	-6048
▁mentally	-6049
▁metallic	-6050
▁misunder	-6051
▁national	-6052
▁nineteen	-6053
▁official	-6054
▁opportun	-6055
▁overhead	-6056
▁payments	-6057
▁perfumed	-6058
▁politely	-6059
▁portfoli	-6060
▁prepared	-6061
▁previous	-6062
▁reddened	-6063
▁research	-6064
▁revolver	-6065
▁shouting	-6066
▁shrieked	-6067
▁shutters	-6068
▁sickened	-6069
▁sidewalk	-6070
▁skeleton	-6071
▁slightly	-6072
▁slipping	-6073
▁smoothed	-6074
▁solitary	-6075
▁sparkled	-6076
▁spotless	-6077
▁stamping	-6078
▁starting	-6079
▁steamers	-6080
▁stepping	-6081
▁stirrups	-6082
▁strained	-6083
▁stupidly	-6084
▁surprise	-6085
▁tattered	-6086
▁tenderly	-6087
▁thanking	-6088
▁tinkling	-6089
▁tiresome	-6090
▁tittered	-6091
▁touching	-6092
▁umbrella	-6093
▁uneasily	-6094
▁unworthy	-6095
▁upstairs	-6096
▁ventured	-6097
▁vibrated	-6098
▁wardrobe	-6099
▁watchman	-6100
▁watering	-6101
▁weakness	-6102
▁whenever	-6103
▁whistled	-6104
▁wondered	-6105
▁wreathed	-6106
▁wretched	-6107
omfortable	-6108
▁Aldebaran	-6109
▁Avonshire	-6110
▁Chaumière	-6111
▁GUTENBERG	-6112
▁Garibaldi	-6113
▁Instantly	-6114
▁Republics	-6115
▁Steylette	-6116
▁Trembling	-6117
▁accepting	-6118
▁adoration	-6119
▁advancing	-6120
▁affection	-6121
▁agitation	-6122
▁ambulance	-6123
▁bloodless	-6124
▁buildings	-6125
▁carefully	-6126
▁character	-6127
▁clambered	-6128
▁committed	-6129
▁complying	-6130
▁crumbling	-6131
▁curtained	-6132
▁darkening	-6133
▁difficult	-6134
▁displayed	-6135
▁disregard	-6136
▁eccentric	-6137
▁enchanted	-6138
▁equipment	-6139
▁excepting	-6140
▁exhausted	-6141
▁fantastic	-6142
▁finishing	-6143
▁firelight	-6144
▁flattened	-6145
▁footsteps	-6146
▁fortunate	-6147
▁gardeners	-6148
▁generally	-6149
▁glimmered	-6150
▁haversack	-6151
▁hyacinths	-6152
▁impatient	-6153
▁instantly	-6154
▁intention	-6155
▁modelling	-6156
▁motioning	-6157
▁neighbour	-6158
▁organized	-6159
▁policemen	-6160
▁possessed	-6161
▁quavering	-6162
▁replacing	-6163
▁responded	-6164
▁returning	-6165
▁royalties	-6166
▁shattered	-6167
▁situation	-6168
▁sparkling	-6169
▁specified	-6170
▁splendour	-6171
▁stammered	-6172
▁tightened	-6173
▁tranquill	-6174
▁uncertain	-6175
▁unhealthy	-6176
▁wandering	-6177
▁wonderful	-6178
▁DEMOISELLE	-6179
▁Everything	-6180
▁Everywhere	-6181
▁Montmartre	-6182
▁absolutely	-6183
▁ambulances	-6184
▁apartments	-6185
▁applicable	-6186
▁assistance	-6187
▁chattering	-6188
▁completely	-6189
▁conviction	-6190
▁cordiality	-6191
▁delightful	-6192
▁derivative	-6193
▁discovered	-6194
▁especially	-6195
▁experience	-6196
▁fascinated	-6197
▁fathomless	-6198
▁fingerless	-6199
▁forgetting	-6200
▁impression	-6201
▁introduced	-6202
▁limitation	-6203
▁monotonous	-6204
▁obligation	-6205
▁paragraphs	-6206
▁performing	-6207
▁profession	-6208
▁pronounced	-6209
▁prosperity	-6210
▁reappeared	-6211
▁reasonable	-6212
▁reflection	-6213
▁repugnance	-6214
▁reputation	-6215
▁silhouette	-6216
▁slumbering	-6217
▁speechless	-6218
▁suppressed	-6219
▁unfinished	-6220
▁whispering	-6221
Mademoiselle	-6222
preservation	-6223
▁Reputations	-6224
▁butterflies	-6225
▁combination	-6226
▁description	-6227
▁dilapidated	-6228
▁disapproval	-6229
▁established	-6230
▁fascinating	-6231
▁fashionable	-6232
▁impatiently	-6233
▁impressions	-6234
▁indefinable	-6235
▁perfunctory	-6236
▁redistribut	-6237
▁replacement	-6238
▁restaurants	-6239
▁transaction	-6240
▁transferred	-6241
▁unconscious	-6242
▁Mademoiselle	-6243
▁Metropolitan	-6244
▁enthusiastic	-6245
▁introduction	-6246
▁thoroughfare	-6247
▁indifferently	-6248
▁uncomfortable	-6249
!_	-6250
).	-6251
**	-6252
.,	-6253
.2	-6254
.4	-6255
.5	-6256
.6	-6257
.8	-6258
01	-6259
21	-6260
62	-6261
98	-6262
Am	-6263
An	-6264
Co	-6265
EA	-6266
EL	-6267
Er	-6268
LI	-6269
MP	-6270
NE	-6271
Ne	-6272
OM	-6273
Os	-6274
Pl	-6275
Re	-6276
SS	-6277
Sh	-6278
TH	-6279
TS	-6280
UD	-6281
Un	-6282
aj	-6283
bb	-6284
cC	-6285
ds	-6286
dé	-6287
ea	-6288
ee	-6289
gu	-6290
iè	-6291
je	-6292
mu	-6293
oe	-6294
uf	-6295
wa	-6296
wo	-6297
ws	-6298
wy	-6299
1,	-6300
DS	-6301
Et	-6302
HA	-6303
IC	-6304
IO	-6305
Li	-6306
YS	-6307
ès	-6308
èv	-6309
és	-6310
▁7	-6311
.6.	-6312
.8.	-6313
00.	-6314
7,”	-6315
ADY	-6316
Bet	-6317
Can	-6318
Cap	-6319
DIS	-6320
Dam	-6321
Get	-6322
Gil	-6323
Had	-6324
Has	-6325
IGN	-6326
Lou	-6327
NTI	-6328
NTY	-6329
Nor	-6330
OSE	-6331
Ole	-6332
Out	-6333
SCI	-6334
Sit	-6335
Ter	-6336
Win	-6337
Won	-6338
_?”	-6339
alv	-6340
amo	-6341
anç	-6342
aos	-6343
apa	-6344
auc	-6345
azz	-6346
bas	-6347
beg	-6348
bug	-6349
bur	-6350
byr	-6351
cam	-6352
car	-6353
cto	-6354
ctr	-6355
cts	-6356
dly	-6357
dri	-6358
dus	-6359
eat	-6360
edd	-6361
ede	-6362
edy	-6363
eri	-6364
eve	-6365
fow	-6366
gid	-6367
hew	-6368
him	-6369
hin	-6370
iam	-6371
ica	-6372
ics	-6373
ids	-6374
iod	-6375
irc	-6376
itc	-6377
kan	-6378
kin	-6379
las	-6380
lyn	-6381
may	-6382
nel	-6383
nto	-6384
ods	-6385
oel	-6386
onc	-6387
oré	-6388
par	-6389
pes	-6390
phe	-6391
pie	-6392
pir	-6393
ray	-6394
rel	-6395
rog	-6396
ros	-6397
rum	-6398
sot	-6399
,—_	-6400
ASK	-6401
oak	-6402
ops	-6403
pun	-6404
ste	-6405
tem	-6406
tle	-6407
uct	-6408
ude	-6409
uge	-6410
uid	-6411
ula	-6412
uns	-6413
yle	-6414
âte	-6415
çon	-6416
écl	-6417
œur	-6418
▁3.	-6419
▁60	-6420
▁Ac	-6421
▁BE	-6422
▁Bo	-6423
▁EX	-6424
▁Ex	-6425
▁FU	-6426
▁HA	-6427
▁LO	-6428
▁Ob	-6429
▁PG	-6430
▁Pr	-6431
▁RO	-6432
▁Su	-6433
▁Sw	-6434
▁Yv	-6435
▁dw	-6436
▁fu	-6437
▁ga	-6438
▁ty	-6439
,000	-6440
DISE	-6441
Dear	-6442
ELDS	-6443
Give	-6444
Here	-6445
ILDE	-6446
INDS	-6447
Jump	-6448
Mais	-6449
Must	-6450
Pass	-6451
With	-6452
acid	-6453
ados	-6454
aids	-6455
aits	-6456
ales	-6457
apes	-6458
arec	-6459
arly	-6460
aron	-6461
ases	-6462
asis	-6463
away	-6464
bare	-6465
beat	-6466
bell	-6467
call	-6468
case	-6469
cean	-6470
cole	-6471
ddie	-6472
drew	-6473
ears	-6474
eent	-6475
elic	-6476
elly	-6477
emet	-6478
ency	-6479
erie	-6480
erms	-6481
ests	-6482
eton	-6483
fant	-6484
fect	-6485
flan	-6486
four	-6487
fowl	-6488
give	-6489
hand	-6490
hest	-6491
hour	-6492
ibly	-6493
iend	-6494
iest	-6495
ille	-6496
ingy	-6497
isel	-6498
ites	-6499
_—”	-6500
ews	-6501
mak	-6502
occ	-6503
——”	-6504
Hold	-6505
abor	-6506
aker	-6507
born	-6508
horn	-6509
itor	-6510
jour	-6511
kind	-6512
lers	-6513
lest	-6514
leum	-6515
llar	-6516
lman	-6517
mail	-6518
oked	-6519
oner	-6520
onic	-6521
orns	-6522
orry	-6523
oses	-6524
osom	-6525
ping	-6526
pire	-6527
plom	-6528
quar	-6529
quer	-6530
ques	-6531
quet	-6532
race	-6533
rack	-6534
ream	-6535
reek	-6536
rehe	-6537
rens	-6538
rest	-6539
riad	-6540
roes	-6541
rons	-6542
rote	-6543
rous	-6544
sage	-6545
seur	-6546
sors	-6547
stin	-6548
stle	-6549
tops	-6550
tree	-6551
tted	-6552
ture	-6553
uish	-6554
umps	-6555
unes	-6556
ustr	-6557
utal	-6558
util	-6559
vity	-6560
with	-6561
your	-6562
▁Act	-6563
▁Bay	-6564
▁Bes	-6565
▁CAM	-6566
▁Cam	-6567
▁Def	-6568
▁Die	-6569
▁Dim	-6570
▁Far	-6571
▁Gay	-6572
▁Get	-6573
▁Hon	-6574
▁IMP	-6575
▁IND	-6576
▁Lau	-6577
▁Les	-6578
▁Mag	-6579
▁Man	-6580
▁Mil	-6581
▁Off	-6582
▁Ori	-6583
▁Our	-6584
▁Out	-6585
▁Per	-6586
▁Pol	-6587
▁Pre	-6588
▁Pri	-6589
▁Pur	-6590
▁Roo	-6591
▁Roy	-6592
▁Sur	-6593
▁Ten	-6594
▁Thy	-6595
▁Ton	-6596
▁Tro	-6597
▁Use	-6598
▁War	-6599
MER	-6600
PHE	-6601
ode	-6602
▁17	-6603
▁Ve	-6604
book	-6605
coat	-6606
door	-6607
ends	-6608
eval	-6609
gged	-6610
glow	-6611
look	-6612
nold	-6613
pose	-6614
unsw	-6615
▁Yet	-6616
▁ath	-6617
▁atm	-6618
▁aud	-6619
▁aut	-6620
▁bid	-6621
▁ble	-6622
▁dom	-6623
▁dry	-6624
▁egg	-6625
▁ess	-6626
▁etc	-6627
▁fac	-6628
▁fed	-6629
▁foi	-6630
▁fox	-6631
▁gay	-6632
▁gen	-6633
▁gim	-6634
▁gle	-6635
▁gum	-6636
▁hen	-6637
▁hit	-6638
▁hut	-6639
▁ign	-6640
▁jam	-6641
▁jol	-6642
▁kin	-6643
▁kno	-6644
▁luc	-6645
▁mai	-6646
▁mew	-6647
▁moi	-6648
▁nap	-6649
▁nim	-6650
▁nod	-6651
▁omn	-6652
▁ost	-6653
▁pad	-6654
▁pin	-6655
▁pop	-6656
▁shy	-6657
▁sin	-6658
▁sul	-6659
▁tab	-6660
▁tag	-6661
▁tap	-6662
▁tot	-6663
▁upt	-6664
▁vap	-6665
▁ves	-6666
▁vil	-6667
▁vir	-6668
▁wad	-6669
▁woo	-6670
Could	-6671
Louis	-6672
NTIES	-6673
Never	-6674
PHETS	-6675
Plain	-6676
Shall	-6677
Wings	-6678
acted	-6679
adily	-6680
agers	-6681
allet	-6682
ample	-6683
anche	-6684
anger	-6685
anity	-6686
anium	-6687
antic	-6688
arged	-6689
ashes	-6690
asses	-6691
assin	-6692
aston	-6693
asure	-6694
atant	-6695
ators	-6696
ature	-6697
augur	-6698
aunty	-6699
.2.	-6700
TRI	-6701
aza	-6702
▁Up	-6703
TRIB	-6704
ians	-6705
jets	-6706
kets	-6707
ocks	-6708
ouds	-6709
sman	-6710
ssia	-6711
worm	-6712
▁Ins	-6713
▁See	-6714
▁dip	-6715
▁hob	-6716
▁ome	-6717
Quick	-6718
Yours	-6719
amped	-6720
awing	-6721
basin	-6722
boots	-6723
cause	-6724
dated	-6725
drawn	-6726
eenth	-6727
eging	-6728
eight	-6729
ences	-6730
ensed	-6731
enses	-6732
entat	-6733
esome	-6734
essor	-6735
estry	-6736
etary	-6737
faced	-6738
fires	-6739
guard	-6740
heart	-6741
icing	-6742
icker	-6743
ieves	-6744
ifled	-6745
igned	-6746
immed	-6747
indle	-6748
inges	-6749
inist	-6750
inkie	-6751
ioned	-6752
irdle	-6753
iring	-6754
isers	-6755
ision	-6756
ittin	-6757
lands	-6758
lated	-6759
lines	-6760
llows	-6761
longe	-6762
lowly	-6763
meats	-6764
noble	-6765
oding	-6766
oises	-6767
olunt	-6768
olved	-6769
ondon	-6770
ongru	-6771
onies	-6772
orter	-6773
phets	-6774
plain	-6775
pling	-6776
plore	-6777
ption	-6778
quest	-6779
raged	-6780
raved	-6781
reted	-6782
ribly	-6783
ridge	-6784
roach	-6785
taine	-6786
three	-6787
uding	-6788
uleps	-6789
umbed	-6790
unken	-6791
unned	-6792
urbed	-6793
urity	-6794
urled	-6795
urned	-6796
urted	-6797
venge	-6798
èvres	-6799
REA	-6800
boy	-6801
eux	-6802
Note	-6803
ixed	-6804
pipe	-6805
REACH	-6806
Think	-6807
agedy	-6808
ggard	-6809
inels	-6810
rooms	-6811
stros	-6812
▁Bank	-6813
▁Bell	-6814
▁Blas	-6815
▁Bour	-6816
▁Carm	-6817
▁Cott	-6818
▁East	-6819
▁Full	-6820
▁Give	-6821
▁Goul	-6822
▁Grop	-6823
▁Half	-6824
▁June	-6825
▁LIAB	-6826
▁LOVE	-6827
▁Lake	-6828
▁Last	-6829
▁Lord	-6830
▁Lost	-6831
▁Mill	-6832
▁Must	-6833
▁Prod	-6834
▁Rich	-6835
▁Samo	-6836
▁Seaf	-6837
▁Sing	-6838
▁Stan	-6839
▁Stat	-6840
▁THAT	-6841
▁Take	-6842
▁Tell	-6843
▁Thus	-6844
▁Vers	-6845
▁Very	-6846
▁Vive	-6847
▁Were	-6848
▁Will	-6849
▁Wine	-6850
▁Your	-6851
▁alas	-6852
▁amaz	-6853
▁anch	-6854
▁atom	-6855
▁aven	-6856
▁baby	-6857
▁ball	-6858
▁bast	-6859
▁begu	-6860
▁bloc	-6861
▁bold	-6862
▁bond	-6863
▁boom	-6864
▁boot	-6865
▁boud	-6866
▁bowl	-6867
▁bows	-6868
▁bred	-6869
▁brow	-6870
▁bund	-6871
▁bush	-6872
▁camp	-6873
▁cars	-6874
▁cash	-6875
▁chew	-6876
▁chir	-6877
▁choo	-6878
▁clad	-6879
▁cool	-6880
▁curb	-6881
▁dame	-6882
▁dart	-6883
▁dawd	-6884
▁deed	-6885
▁disf	-6886
▁dome	-6887
▁elms	-6888
▁emer	-6889
▁emph	-6890
▁fame	-6891
▁fart	-6892
▁feed	-6893
▁fist	-6894
▁fres	-6895
▁furn	-6896
▁furt	-6897
▁gain	-6898
▁game	-6899
Bec	-6900
CEN	-6901
GON	-6902
——.	-6903
comb	-6904
▁DRA	-6905
CENSE	-6906
apeau	-6907
rical	-6908
riots	-6909
useum	-6910
▁Glem	-6911
▁Jean	-6912
▁Lady	-6913
▁Many	-6914
▁Mech	-6915
▁damn	-6916
▁grac	-6917
▁grat	-6918
▁grie	-6919
▁gull	-6920
▁guns	-6921
▁hats	-6922
▁haze	-6923
▁heel	-6924
▁holy	-6925
▁hook	-6926
▁imbe	-6927
▁iris	-6928
▁jerk	-6929
▁king	-6930
▁kith	-6931
▁lame	-6932
▁lanc	-6933
▁lean	-6934
▁lege	-6935
▁lion	-6936
▁load	-6937
▁mark	-6938
▁mash	-6939
▁meth	-6940
▁mint	-6941
▁moul	-6942
▁nice	-6943
▁nour	-6944
▁numb	-6945
▁nuns	-6946
▁penc	-6947
▁pian	-6948
▁pier	-6949
▁pile	-6950
▁plus	-6951
▁pole	-6952
▁post	-6953
▁prob	-6954
▁prog	-6955
▁prou	-6956
▁pull	-6957
▁quar	-6958
▁rain	-6959
▁rays	-6960
▁recl	-6961
▁remn	-6962
▁rent	-6963
▁rugs	-6964
▁ruin	-6965
▁sail	-6966
▁sane	-6967
▁sash	-6968
▁saun	-6969
▁scow	-6970
▁scur	-6971
▁seas	-6972
▁seek	-6973
▁sees	-6974
▁ship	-6975
▁shri	-6976
▁size	-6977
▁skin	-6978
▁slab	-6979
▁slip	-6980
▁smir	-6981
▁snap	-6982
▁soap	-6983
▁soir	-6984
▁sour	-6985
▁sped	-6986
▁spid	-6987
▁stal	-6988
▁stem	-6989
▁sums	-6990
▁suns	-6991
▁sway	-6992
▁tact	-6993
▁tarn	-6994
▁teas	-6995
▁test	-6996
▁thus	-6997
▁till	-6998
▁tiny	-6999
EST	-7000
aggy	-7001
fête	-7002
whel	-7003
agger	-7004
boats	-7005
break	-7006
irium	-7007
ornia	-7008
ptoms	-7009
ratic	-7010
▁Pont	-7011
▁cert	-7012
▁lieu	-7013
▁rags	-7014
▁tips	-7015
▁tire	-7016
▁toes	-7017
▁toss	-7018
▁trac	-7019
▁trib	-7020
▁trim	-7021
▁unan	-7022
▁unch	-7023
▁uncl	-7024
▁valu	-7025
▁vein	-7026
▁vest	-7027
▁wake	-7028
▁weep	-7029
▁wore	-7030
Arnold	-7031
Falcon	-7032
Nobody	-7033
acking	-7034
ailant	-7035
alline	-7036
always	-7037
ancial	-7038
angled	-7039
asonry	-7040
assion	-7041
asures	-7042
aulted	-7043
avoury	-7044
backed	-7045
capped	-7046
ceding	-7047
cribed	-7048
ctrine	-7049
donate	-7050
ealous	-7051
ectual	-7052
edding	-7053
escent	-7054
essert	-7055
fortun	-7056
ground	-7057
hether	-7058
iaeval	-7059
ignant	-7060
ilious	-7061
ilippe	-7062
inated	-7063
indeed	-7064
inting	-7065
ioning	-7066
iority	-7067
isters	-7068
itchen	-7069
ittany	-7070
jected	-7071
locked	-7072
longed	-7073
naires	-7074
osited	-7075
otting	-7076
ounced	-7077
ounted	-7078
perors	-7079
places	-7080
plumed	-7081
ration	-7082
reated	-7083
riadne	-7084
ritten	-7085
rouded	-7086
shaped	-7087
spects	-7088
stones	-7089
ucking	-7090
umpled	-7091
urated	-7092
velled	-7093
verely	-7094
wardly	-7095
warmed	-7096
▁1920,	-7097
▁Bened	-7098
▁Brook	-7099
Puss	-7100
cont	-7101
IRECT	-7102
Kidby	-7103
offic	-7104
pente	-7105
point	-7106
▁Vinc	-7107
▁bolt	-7108
▁deny	-7109
▁glee	-7110
▁nuis	-7111
▁rope	-7112
▁zinc	-7113
▁zone	-7114
Called	-7115
Pardon	-7116
antoms	-7117
listen	-7118
ointed	-7119
tinted	-7120
tipped	-7121
œuvres	-7122
▁Alsat	-7123
▁Barry	-7124
▁Brass	-7125
▁Châte	-7126
▁Clown	-7127
▁Cours	-7128
▁Eddie	-7129
▁Fancy	-7130
▁Franç	-7131
▁Greek	-7132
▁Guard	-7133
▁Later	-7134
▁Molly	-7135
▁Night	-7136
▁Other	-7137
▁Pipes	-7138
▁Press	-7139
▁Reine	-7140
▁Satur	-7141
▁Scene	-7142
▁Sound	-7143
▁Think	-7144
▁Third	-7145
▁Twice	-7146
▁WILDE	-7147
▁WINDS	-7148
▁abstr	-7149
▁abuse	-7150
▁acute	-7151
▁agent	-7152
▁apron	-7153
▁argue	-7154
▁avail	-7155
▁aware	-7156
▁backs	-7157
▁bands	-7158
▁based	-7159
▁basil	-7160
▁begun	-7161
▁blast	-7162
▁bless	-7163
▁blows	-7164
▁blush	-7165
▁board	-7166
▁borne	-7167
▁bosom	-7168
▁boxes	-7169
▁brief	-7170
▁brook	-7171
▁brows	-7172
▁brush	-7173
▁bugle	-7174
▁caged	-7175
▁cared	-7176
▁carri	-7177
▁carry	-7178
▁carts	-7179
▁cease	-7180
▁chaff	-7181
▁chase	-7182
▁chief	-7183
▁clang	-7184
▁class	-7185
▁clerk	-7186
▁comme	-7187
▁const	-7188
▁costs	-7189
▁couch	-7190
▁craft	-7191
▁creep	-7192
▁cries	-7193
▁crust	-7194
▁cured	-7195
▁dazed	-7196
▁decks	-7197
▁demol	-7198
▁demon	-7199
▁$5	-7200
scut	-7201
tête	-7202
whip	-7203
White	-7204
olded	-7205
scape	-7206
while	-7207
words	-7208
▁Paul	-7209
▁Serv	-7210
▁bien	-7211
Madame	-7212
branch	-7213
▁bowls	-7214
▁bunch	-7215
▁cafés	-7216
▁dines	-7217
▁dingy	-7218
▁disch	-7219
▁distr	-7220
▁dully	-7221
▁edged	-7222
▁edges	-7223
▁exile	-7224
▁faded	-7225
▁fault	-7226
▁feels	-7227
▁field	-7228
▁finds	-7229
▁flats	-7230
▁flood	-7231
▁fluid	-7232
▁forty	-7233
▁fours	-7234
▁froze	-7235
▁gives	-7236
▁glare	-7237
▁glist	-7238
▁globe	-7239
▁grief	-7240
▁grown	-7241
▁habit	-7242
▁hasty	-7243
▁heaps	-7244
▁hears	-7245
▁hedge	-7246
▁hotel	-7247
▁ideas	-7248
▁indic	-7249
▁infat	-7250
▁infur	-7251
▁inner	-7252
▁intem	-7253
▁jolly	-7254
▁jours	-7255
▁knock	-7256
▁leash	-7257
▁legal	-7258
▁liked	-7259
▁limit	-7260
▁locks	-7261
▁lotos	-7262
▁loves	-7263
▁marsh	-7264
▁medic	-7265
▁mercy	-7266
▁mewed	-7267
▁moist	-7268
▁mushy	-7269
▁nause	-7270
▁needs	-7271
▁newsp	-7272
▁ocean	-7273
▁odour	-7274
▁omnib	-7275
▁ought	-7276
▁paler	-7277
▁palms	-7278
▁pansy	-7279
▁parks	-7280
▁parts	-7281
▁pasty	-7282
▁paths	-7283
▁paved	-7284
▁peril	-7285
▁petro	-7286
▁piles	-7287
▁plant	-7288
▁plump	-7289
▁poles	-7290
▁pract	-7291
▁prett	-7292
▁pride	-7293
▁print	-7294
▁prize	-7295
▁puffy	-7296
▁raced	-7297
▁raged	-7298
▁rails	-7299
._”	-7300
▁90	-7301
ILLA	-7302
OURT	-7303
Shut	-7304
THER	-7305
bloc	-7306
supp	-7307
▁OUR	-7308
niais	-7309
rabes	-7310
ratul	-7311
ttled	-7312
▁FOUR	-7313
▁SIGN	-7314
▁rejo	-7315
▁rumm	-7316
Really	-7317
pulous	-7318
▁COURT	-7319
▁Terms	-7320
▁blaze	-7321
▁brake	-7322
▁dimly	-7323
▁mamma	-7324
▁mossy	-7325
▁pipes	-7326
▁regis	-7327
▁regul	-7328
▁remar	-7329
▁repay	-7330
▁rigid	-7331
▁roads	-7332
▁roast	-7333
▁rough	-7334
▁round	-7335
▁rusty	-7336
▁sails	-7337
▁saved	-7338
▁scene	-7339
▁scram	-7340
▁scrat	-7341
▁seize	-7342
▁sheer	-7343
▁ships	-7344
▁skirt	-7345
▁skull	-7346
▁slate	-7347
▁sleet	-7348
▁smell	-7349
▁sober	-7350
▁songs	-7351
▁sorry	-7352
▁souls	-7353
▁spect	-7354
▁spend	-7355
▁spoil	-7356
▁stagg	-7357
▁stare	-7358
▁stray	-7359
▁strut	-7360
▁swamp	-7361
▁sward	-7362
▁sweat	-7363
▁swing	-7364
▁tells	-7365
▁tiled	-7366
▁timid	-7367
▁tints	-7368
▁torch	-7369
▁trace	-7370
▁tread	-7371
▁twink	-7372
▁twist	-7373
▁unaff	-7374
▁unmol	-7375
▁upset	-7376
▁value	-7377
▁vault	-7378
▁vigor	-7379
▁vivid	-7380
▁walks	-7381
▁wants	-7382
▁warsh	-7383
▁worms	-7384
▁worst	-7385
▁wreck	-7386
▁yacht	-7387
Because	-7388
Chicken	-7389
Forward	-7390
Hartman	-7391
Hildred	-7392
Pierrot	-7393
Waiting	-7394
ardines	-7395
artment	-7396
athetic	-7397
because	-7398
brained	-7399
tower	-7400
érien	-7401
▁CONT	-7402
▁epau	-7403
ailles	-7404
iminal	-7405
keeper	-7406
market	-7407
oiseau	-7408
osette	-7409
▁Shame	-7410
▁astra	-7411
▁dirty	-7412
▁ferns	-7413
▁gaudy	-7414
▁hoofs	-7415
▁makes	-7416
▁negro	-7417
▁opera	-7418
▁ponds	-7419
▁scoll	-7420
▁vieux	-7421
▁yells	-7422
byrinth	-7423
cellent	-7424
chamber	-7425
claimed	-7426
clothes	-7427
command	-7428
emetery	-7429
fitting	-7430
flecked	-7431
ibility	-7432
ictions	-7433
idently	-7434
ilation	-7435
ildered	-7436
inently	-7437
istence	-7438
ization	-7439
levated	-7440
mblance	-7441
morning	-7442
ocating	-7443
ortions	-7444
osphere	-7445
plicate	-7446
promise	-7447
racting	-7448
renched	-7449
ricious	-7450
roubled	-7451
stained	-7452
uffling	-7453
uitable	-7454
version	-7455
▁Anyway	-7456
▁Burkes	-7457
▁Called	-7458
▁Canned	-7459
▁Castle	-7460
▁County	-7461
▁FIELDS	-7462
▁Father	-7463
▁Fields	-7464
▁George	-7465
▁Honoré	-7466
▁Indeed	-7467
▁London	-7468
▁Lorrrd	-7469
▁Louvre	-7470
▁Mobile	-7471
▁Nobody	-7472
▁Pinkie	-7473
▁Please	-7474
▁Spring	-7475
▁Suisse	-7476
▁Tonton	-7477
▁Twenty	-7478
▁adding	-7479
▁advert	-7480
▁afford	-7481
▁alight	-7482
▁alleys	-7483
▁altern	-7484
▁amazed	-7485
▁amount	-7486
▁amused	-7487
▁animal	-7488
▁ankles	-7489
▁arabes	-7490
▁arched	-7491
▁ardour	-7492
▁arouse	-7493
▁arrest	-7494
▁arrows	-7495
▁attire	-7496
▁author	-7497
▁backed	-7498
▁banner	-7499
.4.	-7500
.5.	-7501
mué	-7502
Like	-7503
SCII	-7504
iège	-7505
▁***	-7506
▁McC	-7507
maids	-7508
▁Calv	-7509
▁FULL	-7510
▁Joel	-7511
▁LADY	-7512
▁MASK	-7513
▁Octo	-7514
▁cœur	-7515
▁dewy	-7516
Better	-7517
ircled	-7518
makers	-7519
▁ASCII	-7520
▁Moses	-7521
▁Yvain	-7522
▁abode	-7523
▁array	-7524
▁chaos	-7525
▁cloak	-7526
▁fiend	-7527
▁mutil	-7528
▁separ	-7529
▁style	-7530
▁sycam	-7531
▁wrote	-7532
▁École	-7533
flanked	-7534
quarium	-7535
unswick	-7536
▁Except	-7537
▁McCorm	-7538
▁Orient	-7539
▁Police	-7540
▁Slowly	-7541
▁Whysot	-7542
▁autumn	-7543
▁awaits	-7544
▁basket	-7545
▁biting	-7546
▁bobbed	-7547
▁breeze	-7548
▁brings	-7549
▁brutal	-7550
▁bucket	-7551
▁buckle	-7552
▁bullet	-7553
▁career	-7554
▁caress	-7555
▁carpet	-7556
▁centre	-7557
▁chaper	-7558
▁charms	-7559
▁chased	-7560
▁chests	-7561
▁chilly	-7562
▁chisel	-7563
▁circum	-7564
▁clergy	-7565
▁commun	-7566
▁constr	-7567
▁conver	-7568
▁coolly	-7569
▁copied	-7570
▁corpse	-7571
▁covert	-7572
▁crunch	-7573
▁curved	-7574
▁curves	-7575
▁dainty	-7576
▁daring	-7577
▁dashed	-7578
▁decide	-7579
▁detach	-7580
▁detain	-7581
▁devils	-7582
▁diplom	-7583
▁dipped	-7584
▁dodged	-7585
▁dolman	-7586
▁domain	-7587
▁dragon	-7588
▁dreary	-7589
▁drowsy	-7590
▁easier	-7591
▁easily	-7592
▁echoed	-7593
▁elbows	-7594
▁eleven	-7595
▁empire	-7596
▁encoun	-7597
▁encour	-7598
▁engulf	-7599
TRIBUT	-7600
officer	-7601
scuttle	-7602
▁BREACH	-7603
▁DRAGON	-7604
▁Gaston	-7605
▁Insane	-7606
▁Museum	-7607
▁Russia	-7608
▁Sèvres	-7609
▁errand	-7610
▁events	-7611
▁execut	-7612
▁exempt	-7613
▁eyeing	-7614
▁fading	-7615
▁fagged	-7616
▁flying	-7617
▁forbid	-7618
▁fourth	-7619
▁frames	-7620
▁frenzy	-7621
▁furled	-7622
▁garçon	-7623
▁gimlet	-7624
▁girdle	-7625
▁gladly	-7626
▁grille	-7627
▁groans	-7628
▁hailed	-7629
▁hatred	-7630
▁height	-7631
▁hemisp	-7632
▁heroes	-7633
▁hiding	-7634
▁higher	-7635
▁hinges	-7636
▁homage	-7637
▁hooded	-7638
▁hoping	-7639
▁humble	-7640
▁humbug	-7641
▁hummed	-7642
▁hunted	-7643
▁infant	-7644
▁insist	-7645
▁invite	-7646
▁island	-7647
▁jaunty	-7648
▁joking	-7649
▁juleps	-7650
▁keeper	-7651
▁kindly	-7652
▁lacked	-7653
▁lagged	-7654
▁lesson	-7655
▁limpid	-7656
▁loathe	-7657
▁locked	-7658
▁lookin	-7659
▁loving	-7660
▁maikes	-7661
▁mallet	-7662
▁mantle	-7663
▁marine	-7664
▁market	-7665
▁melted	-7666
▁menace	-7667
▁mildly	-7668
▁moaned	-7669
▁myster	-7670
▁nation	-7671
▁nothin	-7672
▁omelet	-7673
▁openly	-7674
▁orders	-7675
▁padded	-7676
▁palest	-7677
▁paraly	-7678
▁period	-7679
▁petted	-7680
▁pillow	-7681
▁placid	-7682
▁plight	-7683
▁poised	-7684
▁police	-7685
▁posing	-7686
▁prayed	-7687
▁preser	-7688
▁prices	-7689
▁proved	-7690
▁purred	-7691
▁queens	-7692
▁rammer	-7693
▁ranged	-7694
▁remark	-7695
▁repeat	-7696
▁resume	-7697
▁retain	-7698
▁ripped	-7699
▁rivers	-7700
▁rivets	-7701
▁robbed	-7702
▁sacred	-7703
▁sailed	-7704
▁scales	-7705
▁school	-7706
▁sealed	-7707
▁shabby	-7708
▁shaken	-7709
▁shared	-7710
▁sheets	-7711
▁silica	-7712
▁sinker	-7713
▁sleeve	-7714
▁smoked	-7715
▁smould	-7716
▁soaked	-7717
▁soared	-7718
▁sparks	-7719
▁squeal	-7720
▁starve	-7721
▁steady	-7722
▁stored	-7723
▁stroke	-7724
▁stumps	-7725
▁stupid	-7726
▁suited	-7727
▁sullen	-7728
▁summon	-7729
▁sunlit	-7730
▁sunset	-7731
▁superb	-7732
▁suspic	-7733
▁swamps	-7734
▁tacked	-7735
▁talked	-7736
▁talons	-7737
▁temper	-7738
▁thorns	-7739
▁thrill	-7740
▁thrown	-7741
▁thrust	-7742
▁tinged	-7743
▁tinkle	-7744
▁tinsel	-7745
▁toddle	-7746
▁tremor	-7747
▁tricks	-7748
▁trifle	-7749
▁trills	-7750
▁triple	-7751
▁tucked	-7752
▁tumult	-7753
▁uneasy	-7754
▁unison	-7755
▁unkind	-7756
▁unlike	-7757
▁unwill	-7758
▁vacant	-7759
▁velvet	-7760
▁vessel	-7761
▁vilain	-7762
▁virtue	-7763
▁vistas	-7764
▁waiter	-7765
▁wander	-7766
▁wasted	-7767
▁watery	-7768
▁weekly	-7769
▁widest	-7770
▁wrench	-7771
▁writer	-7772
Probably	-7773
Together	-7774
ceptible	-7775
covering	-7776
iousness	-7777
ongruous	-7778
opyright	-7779
ountains	-7780
ouraging	-7781
rehended	-7782
rogative	-7783
strosity	-7784
valanche	-7785
▁Alarmed	-7786
▁Ariadne	-7787
▁Bourbon	-7788
▁CAMILLA	-7789
▁Camilla	-7790
▁Clisson	-7791
▁Company	-7792
▁Cottard	-7793
▁DAMAGES	-7794
▁England	-7795
▁Francis	-7796
▁Gardens	-7797
▁Germany	-7798
▁Goulven	-7799
▁Groping	-7800
▁Instead	-7801
▁Islands	-7802
▁Jesuits	-7803
▁LICENSE	-7804
▁Laurens	-7805
▁Nothing	-7806
▁October	-7807
▁Pierrot	-7808
▁Puritan	-7809
▁Richard	-7810
▁Royalty	-7811
▁Surgeon	-7812
▁Vanilla	-7813
▁William	-7814
▁Without	-7815
▁advance	-7816
▁amusing	-7817
▁anguish	-7818
▁anticip	-7819
▁apology	-7820
▁applied	-7821
▁approve	-7822
▁arguing	-7823
▁assumed	-7824
▁attract	-7825
▁avenues	-7826
▁babbled	-7827
▁balance	-7828
▁bargain	-7829
▁baskets	-7830
▁belongs	-7831
▁besides	-7832
▁blandly	-7833
▁blazing	-7834
▁blindly	-7835
▁blocked	-7836
▁blurred	-7837
▁blurted	-7838
▁boudoir	-7839
▁breathe	-7840
▁briskly	-7841
▁brushed	-7842
▁bubbled	-7843
▁cabbage	-7844
▁capable	-7845
▁ceasing	-7846
▁ceiling	-7847
▁central	-7848
▁century	-7849
▁charges	-7850
▁checked	-7851
▁choking	-7852
▁chuckle	-7853
▁circled	-7854
▁clamour	-7855
▁clanged	-7856
▁clasped	-7857
▁clearly	-7858
▁clinked	-7859
▁cluster	-7860
▁comment	-7861
▁complet	-7862
▁conceal	-7863
▁concept	-7864
▁contact	-7865
▁contain	-7866
▁convent	-7867
▁corrupt	-7868
▁corsage	-7869
▁counter	-7870
▁courage	-7871
▁cropped	-7872
▁crosses	-7873
▁crowned	-7874
▁curling	-7875
▁cutting	-7876
▁damages	-7877
▁dancing	-7878
▁dashing	-7879
▁dealers	-7880
▁deathly	-7881
▁decency	-7882
▁destroy	-7883
▁details	-7884
▁dodging	-7885
▁dragoon	-7886
▁dreaded	-7887
▁drummer	-7888
▁dusting	-7889
▁element	-7890
▁emerald	-7891
▁endless	-7892
▁engaged	-7893
▁enjoyed	-7894
▁equally	-7895
▁essence	-7896
▁eternal	-7897
▁exagger	-7898
▁exhaled	-7899
▁existed	-7900
▁expense	-7901
▁extract	-7902
▁eyelids	-7903
▁fainted	-7904
▁farther	-7905
▁fearful	-7906
▁federal	-7907
▁fifteen	-7908
▁flagons	-7909
▁flatter	-7910
▁flicked	-7911
▁flitted	-7912
▁floated	-7913
▁flowing	-7914
▁foaming	-7915
▁forests	-7916
▁forever	-7917
▁forgive	-7918
▁formula	-7919
▁gardens	-7920
▁garment	-7921
▁glances	-7922
▁glasses	-7923
▁granted	-7924
▁gravity	-7925
▁grimace	-7926
▁grounds	-7927
▁haggard	-7928
▁harbour	-7929
▁helmets	-7930
▁hollows	-7931
▁hostess	-7932
▁hostile	-7933
▁hovered	-7934
▁immense	-7935
▁immoral	-7936
▁implied	-7937
▁implore	-7938
▁inaugur	-7939
▁inquire	-7940
▁instrum	-7941
▁intoler	-7942
▁jealous	-7943
▁kitchen	-7944
▁lancers	-7945
▁languid	-7946
▁leading	-7947
▁learned	-7948
▁lifting	-7949
▁longing	-7950
▁marbles	-7951
▁mashing	-7952
▁masonry	-7953
▁massier	-7954
▁melting	-7955
▁million	-7956
▁mistake	-7957
▁moulted	-7958
▁muffled	-7959
▁natural	-7960
▁nearest	-7961
▁ordered	-7962
▁palaces	-7963
▁parapet	-7964
▁picking	-7965
▁pillars	-7966
▁piqueur	-7967
▁placing	-7968
▁planted	-7969
▁plumage	-7970
▁pockets	-7971
▁prepare	-7972
▁pretend	-7973
▁pricked	-7974
▁private	-7975
▁purpose	-7976
▁receipt	-7977
▁regular	-7978
▁request	-7979
▁retired	-7980
▁retreat	-7981
▁returns	-7982
▁revenge	-7983
▁reverie	-7984
▁ringing	-7985
▁rockets	-7986
▁saluted	-7987
▁salutes	-7988
▁scanned	-7989
▁screams	-7990
▁scuffle	-7991
▁secrets	-7992
▁secured	-7993
▁servant	-7994
▁setting	-7995
▁settles	-7996
▁shouldn	-7997
▁shuffle	-7998
▁smaller	-7999
▁sneered	-8000
▁sniffed	-8001
▁society	-8002
▁solicit	-8003
▁springs	-8004
▁spurred	-8005
▁stained	-8006
▁stamped	-8007
▁starved	-8008
▁stately	-8009
▁steered	-8010
▁stifled	-8011
▁stories	-8012
▁stormed	-8013
▁streams	-8014
▁stunned	-8015
▁succeed	-8016
▁sucking	-8017
▁suicide	-8018
▁surgeon	-8019
▁survive	-8020
▁sweetly	-8021
▁theatre	-8022
▁thieves	-8023
▁tinkled	-8024
▁torches	-8025
▁torrent	-8026
▁towered	-8027
▁tracing	-8028
▁tragedy	-8029
▁tramped	-8030
▁trestle	-8031
▁tribune	-8032
▁tripped	-8033
▁unheard	-8034
▁unquest	-8035
▁upright	-8036
▁vacancy	-8037
▁variety	-8038
▁village	-8039
▁villain	-8040
▁waddled	-8041
▁washing	-8042
▁wearied	-8043
▁weather	-8044
▁wedding	-8045
▁whither	-8046
▁woollen	-8047
▁wrought	-8048
▁yawning	-8049
Beautiful	-8050
alifornia	-8051
beautiful	-8052
branchier	-8053
entations	-8054
ification	-8055
iscretion	-8056
ributions	-8057
▁Alsatian	-8058
▁Although	-8059
▁Benedick	-8060
▁Bohemian	-8061
▁Brittany	-8062
▁Brooklyn	-8063
▁Calvados	-8064
▁Constant	-8065
▁Criminal	-8066
▁Glemarec	-8067
▁PARADISE	-8068
▁PROPHETS	-8069
▁Parisien	-8070
▁Prophets	-8071
▁Saturday	-8072
▁Seaforth	-8073
▁Serpente	-8074
▁Valérien	-8075
▁WARRANTY	-8076
▁acquired	-8077
▁actually	-8078
▁affected	-8079
▁alighted	-8080
▁alleging	-8081
▁anchored	-8082
▁appetite	-8083
▁appropri	-8084
▁assassin	-8085
▁astrakan	-8086
▁audacity	-8087
▁balanced	-8088
▁bandaged	-8089
▁basement	-8090
▁basilisk	-8091
▁bitterly	-8092
▁bleeding	-8093
▁blighted	-8094
▁blushing	-8095
▁bordered	-8096
▁bothered	-8097
▁boulders	-8098
▁brushing	-8099
▁bubbling	-8100
▁building	-8101
▁captured	-8102
▁carrying	-8103
▁cemetery	-8104
▁checking	-8105
▁choosing	-8106
▁chuckled	-8107
▁clearest	-8108
▁clinched	-8109
▁collided	-8110
▁computer	-8111
▁contents	-8112
▁continue	-8113
▁contrary	-8114
▁corridor	-8115
▁crackled	-8116
▁crashing	-8117
▁creation	-8118
▁croisson	-8119
▁cruisers	-8120
▁crumpled	-8121
▁crushing	-8122
▁curtains	-8123
▁cushions	-8124
▁customer	-8125
▁dangling	-8126
▁dawdling	-8127
▁deceived	-8128
▁delirium	-8129
▁devoured	-8130
▁discreet	-8131
▁divining	-8132
▁doctrine	-8133
▁downward	-8134
▁dripping	-8135
▁drowning	-8136
▁emperors	-8137
▁emphasis	-8138
▁engraved	-8139
▁evidence	-8140
▁existing	-8141
▁expenses	-8142
▁eyebrows	-8143
▁fatherly	-8144
▁feelings	-8145
▁fixative	-8146
▁formerly	-8147
▁fragrant	-8148
▁frighten	-8149
▁frontier	-8150
▁frowning	-8151
▁garments	-8152
▁gauntlet	-8153
▁geranium	-8154
▁grateful	-8155
▁greeting	-8156
▁grinding	-8157
▁gruesome	-8158
▁handsome	-8159
▁homespun	-8160
▁horsemen	-8161
▁hospital	-8162
▁hundreds	-8163
▁huntsman	-8164
▁hurrying	-8165
▁imbecile	-8166
▁incident	-8167
▁infinite	-8168
▁inspired	-8169
▁instance	-8170
▁interval	-8171
▁investig	-8172
▁inviting	-8173
▁inwardly	-8174
▁joyously	-8175
▁judgment	-8176
▁kindness	-8177
▁lanterns	-8178
▁leathern	-8179
▁luncheon	-8180
▁luxuries	-8181
▁marching	-8182
▁memories	-8183
▁menacing	-8184
▁millions	-8185
▁modified	-8186
▁nestling	-8187
▁nuisance	-8188
▁objected	-8189
▁obtained	-8190
▁original	-8191
▁ostentat	-8192
▁outlines	-8193
▁outraged	-8194
▁overtake	-8195
▁overtook	-8196
▁overwhel	-8197
▁painters	-8198
▁panelled	-8199
▁parapets	-8200
▁parental	-8201
▁pedestal	-8202
▁phantoms	-8203
▁pictures	-8204
▁piercing	-8205
▁ploughed	-8206
▁poisoned	-8207
▁pounding	-8208
▁powdered	-8209
▁preached	-8210
▁pressing	-8211
▁prisoner	-8212
▁profound	-8213
▁properly	-8214
▁quarters	-8215
▁refusing	-8216
▁relative	-8217
▁relaxing	-8218
▁replying	-8219
▁reproach	-8220
▁resisted	-8221
▁resolved	-8222
▁ridicule	-8223
▁rumbling	-8224
▁rustling	-8225
▁savagely	-8226
▁scanning	-8227
▁scowling	-8228
▁scraping	-8229
▁scurried	-8230
▁selected	-8231
▁sensible	-8232
▁sentence	-8233
▁serenely	-8234
▁severely	-8235
▁shrouded	-8236
▁shrugged	-8237
▁sinister	-8238
▁skipping	-8239
▁slouched	-8240
▁snatched	-8241
▁soldiers	-8242
▁sounding	-8243
▁sprained	-8244
▁starving	-8245
▁steadily	-8246
▁steaming	-8247
▁stripped	-8248
▁substant	-8249
▁surveyed	-8250
▁swarming	-8251
▁sweetest	-8252
▁swelling	-8253
▁swinging	-8254
▁symptoms	-8255
▁tapestry	-8256
▁terraces	-8257
▁thickest	-8258
▁throwing	-8259
▁timidity	-8260
▁tontaine	-8261
▁training	-8262
▁tranquil	-8263
▁tumbling	-8264
▁twitched	-8265
▁unfolded	-8266
▁unfurled	-8267
▁vigorous	-8268
▁warships	-8269
▁wavering	-8270
▁welcomed	-8271
▁whatever	-8272
▁withdrew	-8273
---------+	-8274
suppressed	-8275
▁Americain	-8276
▁Americans	-8277
▁Boulanger	-8278
▁Brasserie	-8279
▁Brunswick	-8280
▁Carmichel	-8281
▁DISTRIBUT	-8282
▁Donations	-8283
▁Everybody	-8284
▁Highlands	-8285
▁Millbrook	-8286
▁Sometimes	-8287
▁Somewhere	-8288
▁ablutions	-8289
▁according	-8290
▁alighting	-8291
▁allowance	-8292
▁amazement	-8293
▁annoyance	-8294
▁appealing	-8295
▁assailant	-8296
▁attacking	-8297
▁authority	-8298
▁available	-8299
▁batteries	-8300
▁blackened	-8301
▁blackness	-8302
▁breathing	-8303
▁cannonade	-8304
▁canvasses	-8305
▁cartridge	-8306
▁centuries	-8307
▁chattered	-8308
▁clustered	-8309
▁comforted	-8310
▁commotion	-8311
▁complaint	-8312
▁computers	-8313
▁concerned	-8314
▁confessed	-8315
▁congratul	-8316
▁connected	-8317
▁considers	-8318
▁corrected	-8319
▁cowardice	-8320
▁crimsoned	-8321
▁crouching	-8322
▁cushioned	-8323
▁declaring	-8324
▁defiantly	-8325
▁demanding	-8326
▁departure	-8327
▁deposited	-8328
▁destroyed	-8329
▁determine	-8330
▁dignified	-8331
▁direction	-8332
▁discussed	-8333
▁disfavour	-8334
▁disgusted	-8335
▁dishonour	-8336
▁disturbed	-8337
▁dreamland	-8338
▁duplicate	-8339
▁embarrass	-8340
▁encircled	-8341
▁enveloped	-8342
▁establish	-8343
▁excellent	-8344
▁exception	-8345
▁exclaimed	-8346
▁exclusion	-8347
▁exclusive	-8348
▁favourite	-8349
▁financial	-8350
▁fountains	-8351
▁fragments	-8352
▁fragrance	-8353
▁freshness	-8354
▁galloping	-8355
▁gentleman	-8356
▁gradually	-8357
▁gratified	-8358
▁hideously	-8359
▁hurriedly	-8360
▁immediate	-8361
▁inhabited	-8362
▁inspected	-8363
▁interpret	-8364
▁labyrinth	-8365
▁landscape	-8366
▁languidly	-8367
▁leisurely	-8368
▁liability	-8369
▁lingering	-8370
▁loiterers	-8371
▁mediaeval	-8372
▁mountains	-8373
▁mutilated	-8374
▁nervously	-8375
▁noiseless	-8376
▁obtaining	-8377
▁omnibuses	-8378
▁persisted	-8379
▁pertained	-8380
▁petroleum	-8381
▁pillagers	-8382
▁plaintive	-8383
▁possesses	-8384
▁pretended	-8385
▁proceeded	-8386
▁prolonged	-8387
▁promoting	-8388
▁prospects	-8389
▁reassured	-8390
▁reception	-8391
▁recognize	-8392
▁recollect	-8393
▁regiments	-8394
▁regretted	-8395
▁requested	-8396
▁restraint	-8397
▁reticence	-8398
▁retreated	-8399
▁salvation	-8400
▁saturated	-8401
▁sauntered	-8402
▁scolloped	-8403
▁scrambled	-8404
▁sculpture	-8405
▁sentinels	-8406
▁shambling	-8407
▁shivering	-8408
▁showering	-8409
▁shrieking	-8410
▁sketching	-8411
▁slaughter	-8412
▁slouching	-8413
▁splinters	-8414
▁springing	-8415
▁squadrons	-8416
▁squinting	-8417
▁staggered	-8418
▁stairways	-8419
▁strangers	-8420
▁streamers	-8421
▁strolling	-8422
▁structure	-8423
▁stupefied	-8424
▁succeeded	-8425
▁suspected	-8426
▁sycamores	-8427
▁tarnished	-8428
▁telegraph	-8429
▁territory	-8430
▁thrilling	-8431
▁throbbing	-8432
▁throttled	-8433
▁tormented	-8434
▁trampling	-8435
▁traversed	-8436
▁treasures	-8437
▁treatment	-8438
▁unlighted	-8439
▁voluntary	-8440
▁volunteer	-8441
▁whitening	-8442
▁wondering	-8443
destruction	-8444
▁Demoiselle	-8445
▁Versailles	-8446
▁WARRANTIES	-8447
▁accordance	-8448
▁accustomed	-8449
▁additional	-8450
▁addressing	-8451
▁afterwards	-8452
▁approached	-8453
▁atmosphere	-8454
▁bewildered	-8455
▁bewitching	-8456
▁blackbirds	-8457
▁blackguard	-8458
▁brightened	-8459
▁buttonhole	-8460
▁capricious	-8461
▁carelessly	-8462
▁ceremonies	-8463
▁colourless	-8464
▁commanding	-8465
▁compassion	-8466
▁conclusion	-8467
▁constantly	-8468
▁controlled	-8469
▁courtoisie	-8470
▁depression	-8471
▁desolation	-8472
▁disclaimer	-8473
▁discretion	-8474
▁discussing	-8475
▁dismantled	-8476
▁disordered	-8477
▁drawbridge	-8478
▁embroidery	-8479
▁epaulettes	-8480
▁expectancy	-8481
▁experiment	-8482
▁foreigners	-8483
▁glittering	-8484
▁gratefully	-8485
▁heightened	-8486
▁impatience	-8487
▁inconstant	-8488
▁infuriated	-8489
▁innocently	-8490
▁laughingly	-8491
▁newspapers	-8492
▁opalescent	-8493
▁ornamented	-8494
▁outflanked	-8495
▁passionate	-8496
▁portfolios	-8497
▁presenting	-8498
▁protection	-8499
▁references	-8500
▁registered	-8501
▁respectful	-8502
▁retreating	-8503
▁sacrificed	-8504
▁salutation	-8505
▁satisfying	-8506
▁sensations	-8507
▁separately	-8508
▁soothingly	-8509
▁stretching	-8510
▁substitute	-8511
▁supporting	-8512
▁sweetmeats	-8513
▁tenderness	-8514
▁theatrical	-8515
▁threadbare	-8516
▁throughout	-8517
▁tightening	-8518
▁tranquilly	-8519
▁translated	-8520
▁traversing	-8521
▁triangular	-8522
▁triumphant	-8523
▁turquoises	-8524
▁unaffected	-8525
▁unmolested	-8526
▁unpleasant	-8527
▁unsuitable	-8528
▁untroubled	-8529
▁GUTENBERGTM	-8530
▁Redistribut	-8531
▁abstraction	-8532
▁beautifully	-8533
▁caressingly	-8534
▁commonplace	-8535
▁compartment	-8536
▁conclusions	-8537
▁constrained	-8538
▁continually	-8539
▁crystalline	-8540
▁decorations	-8541
▁destruction	-8542
▁diffidently	-8543
▁distraction	-8544
▁exaggerated	-8545
▁expectation	-8546
▁generations	-8547
▁harebrained	-8548
▁hospitality	-8549
▁impulsively	-8550
▁incongruous	-8551
▁indignation	-8552
▁infatuation	-8553
▁intelligent	-8554
▁intemperate	-8555
▁interviewed	-8556
▁manuscripts	-8557
▁meaningless	-8558
▁monstrosity	-8559
▁observation	-8560
▁opportunity	-8561
▁overlooking	-8562
▁practically	-8563
▁prohibiting	-8564
▁prominently	-8565
▁punctilious	-8566
▁questioning	-8567
▁remembering	-8568
▁remonstrate	-8569
▁represented	-8570
▁resemblance	-8571
▁smouldering	-8572
▁suffocating	-8573
▁superiority	-8574
▁sympathetic	-8575
▁thoughtless	-8576
▁Mechanically	-8577
▁accomplished	-8578
▁complacently	-8579
▁comprehended	-8580
▁conservatory	-8581
▁considerable	-8582
▁convalescent	-8583
▁deliberately	-8584
▁discouraging	-8585
▁headquarters	-8586
▁homesickness	-8587
▁inauguration	-8588
▁intellectual	-8589
▁intelligence	-8590
▁occasionally	-8591
▁particularly	-8592
▁respectfully	-8593
▁satisfaction	-8594
▁surroundings	-8595
▁complications	-8596
▁comprehension	-8597
▁convalescence	-8598
▁encouragement	-8599
▁inconvenience	-8600
▁interrogative	-8601
▁misunderstood	-8602
▁pensionnaires	-8603
▁unquestioning	-8604
▁disappointment	-8605
▁electronically	-8606
▁respectability	-8607
▁responsibility	-8608
!)	-8609
!’	-8610
#5	-8611
$1	-8612
(3	-8613
):	-8614
,_	-8615
-9	-8616
.)	-8617
.]	-8618
0%	-8619
1.	-8620
16	-8621
2,	-8622
28	-8623
3.	-8624
4-	-8625
45	-8626
54	-8627
57	-8628
7,	-8629
9,	-8630
:—	-8631
:”	-8632
?’	-8633
AC	-8634
Ab	-8635
Ay	-8636
BO	-8637
CL	-8638
Cl	-8639
Cr	-8640
De	-8641
EG	-8642
Ed	-8643
Eh	-8644
En	-8645
Es	-8646
FF	-8647
FI	-8648
FO	-8649
FU	-8650
Gu	-8651
HO	-8652
HT	-8653
IB	-8654
ID	-8655
IN	-8656
IP	-8657
Im	-8658
Je	-8659
Ke	-8660
LE	-8661
MR	-8662
Ma	-8663
NI	-8664
OK	-8665
OX	-8666
Ob	-8667
Op	-8668
PH	-8669
PT	-8670
Pa	-8671
QU	-8672
RM	-8673
SA	-8674
SB	-8675
TT	-8676
TY	-8677
WN	-8678
Wr	-8679
YN	-8680
_;	-8681
_?	-8682
_’	-8683
ae	-8684
ba	-8685
ci	-8686
cr	-8687
dm	-8688
fi	-8689
gr	-8690
hl	-8691
ht	-8692
ky	-8693
lp	-8694
ma	-8695
né	-8696
sb	-8697
sl	-8698
sm	-8699
ui	-8700
uy	-8701
vy	-8702
wl	-8703
yc	-8704
ym	-8705
ys	-8706
Ça	-8707
éd	-8708
ém	-8709
ît	-8710
—‘	-8711
—’	-8712
”;	-8713
”—	-8714
▁0	-8715
▁Q	-8716
▁X	-8717
▁[	-8718
▁i	-8719
▁á	-8720
▁é	-8721
..”	-8722
30,	-8723
Aux	-8724
Ber	-8725
Che	-8726
Con	-8727
Cur	-8728
Cut	-8729
Ess	-8730
Far	-8731
Fer	-8732
Fif	-8733
Gay	-8734
His	-8735
ICH	-8736
Ind	-8737
MED	-8738
Mer	-8739
Nom	-8740
ORK	-8741
Oct	-8742
PRE	-8743
Per	-8744
Pet	-8745
Put	-8746
RAY	-8747
Red	-8748
Sho	-8749
Tid	-8750
Wat	-8751
_,—	-8752
aem	-8753
aes	-8754
ala	-8755
amb	-8756
ari	-8757
ata	-8758
ays	-8759
bac	-8760
chn	-8761
cue	-8762
cut	-8763
des	-8764
din	-8765
eet	-8766
ege	-8767
ena	-8768
enc	-8769
enl	-8770
eon	-8771
erd	-8772
fit	-8773
fly	-8774
fol	-8775
ggy	-8776
gie	-8777
gra	-8778
gre	-8779
had	-8780
hot	-8781
ico	-8782
iel	-8783
igz	-8784
irv	-8785
iry	-8786
ism	-8787
itl	-8788
kit	-8789
lex	-8790
lys	-8791
lyt	-8792
mas	-8793
mez	-8794
oat	-8795
oed	-8796
oit	-8797
osh	-8798
oub	-8799
Ass	-8800
Bon	-8801
Cat	-8802
Hen	-8803
Wor	-8804
anu	-8805
ato	-8806
bis	-8807
enn	-8808
hol	-8809
hor	-8810
hum	-8811
ior	-8812
nor	-8813
pin	-8814
ply	-8815
pow	-8816
rem	-8817
rig	-8818
son	-8819
tur	-8820
uno	-8821
vin	-8822
xed	-8823
yst	-8824
zer	-8825
éon	-8826
éro	-8827
’.”	-8828
▁13	-8829
▁28	-8830
▁30	-8831
▁CH	-8832
▁Ce	-8833
▁DI	-8834
▁Et	-8835
▁IF	-8836
▁IS	-8837
▁Ir	-8838
▁Kn	-8839
▁PH	-8840
▁PL	-8841
▁Po	-8842
▁ah	-8843
▁ba	-8844
▁bé	-8845
▁ca	-8846
▁il	-8847
▁om	-8848
▁rô	-8849
▁si	-8850
▁ug	-8851
▁“9	-8852
▁“‘	-8853
....	-8854
21-9	-8855
77,”	-8856
Dest	-8857
ENTI	-8858
ENTS	-8859
HALL	-8860
Hund	-8861
LIFF	-8862
LLIO	-8863
NDER	-8864
NITY	-8865
Name	-8866
Only	-8867
Osce	-8868
Push	-8869
RICT	-8870
TICE	-8871
Thus	-8872
Veux	-8873
WNER	-8874
Wait	-8875
ader	-8876
agic	-8877
agle	-8878
agut	-8879
airy	-8880
ante	-8881
apse	-8882
arse	-8883
asem	-8884
asms	-8885
assé	-8886
ator	-8887
atre	-8888
awth	-8889
been	-8890
bine	-8891
boys	-8892
cent	-8893
cers	-8894
chid	-8895
chon	-8896
danc	-8897
deep	-8898
déje	-8899
acc	-8900
bes	-8901
ees	-8902
ese	-8903
fet	-8904
gar	-8905
har	-8906
lid	-8907
mar	-8908
opt	-8909
▁4,	-8910
▁“’	-8911
Miss	-8912
edan	-8913
eers	-8914
eked	-8915
elon	-8916
elsh	-8917
enta	-8918
ente	-8919
enus	-8920
eter	-8921
ewly	-8922
fety	-8923
ford	-8924
gent	-8925
gers	-8926
ggle	-8927
hair	-8928
held	-8929
heon	-8930
heum	-8931
heur	-8932
hued	-8933
ials	-8934
iche	-8935
iday	-8936
igen	-8937
iger	-8938
ilac	-8939
ilar	-8940
immy	-8941
imum	-8942
iner	-8943
ingu	-8944
inue	-8945
ises	-8946
isis	-8947
ithe	-8948
kers	-8949
kish	-8950
lyet	-8951
mist	-8952
mout	-8953
ndal	-8954
ners	-8955
nify	-8956
oble	-8957
oila	-8958
olus	-8959
once	-8960
onse	-8961
open	-8962
orks	-8963
ormi	-8964
orms	-8965
ouen	-8966
oust	-8967
phur	-8968
plit	-8969
pond	-8970
pone	-8971
pper	-8972
quel	-8973
rail	-8974
reve	-8975
rium	-8976
roma	-8977
rore	-8978
seed	-8979
sell	-8980
step	-8981
tees	-8982
tesy	-8983
than	-8984
tire	-8985
uced	-8986
ucer	-8987
uest	-8988
uise	-8989
ults	-8990
unks	-8991
urer	-8992
urry	-8993
usal	-8994
veux	-8995
weed	-8996
zard	-8997
▁($1	-8998
▁17.	-8999
Aut	-9000
adu	-9001
bow	-9002
emy	-9003
ley	-9004
pro	-9005
see	-9006
èle	-9007
▁Té	-9008
▁gn	-9009
▁gê	-9010
ILDA	-9011
Mill	-9012
Open	-9013
aver	-9014
ects	-9015
idan	-9016
lear	-9017
mans	-9018
ogne	-9019
sych	-9020
ucky	-9021
uset	-9022
vell	-9023
zily	-9024
▁19,	-9025
▁998	-9026
▁AND	-9027
▁App	-9028
▁Bar	-9029
▁Cro	-9030
▁Cub	-9031
▁DYN	-9032
▁Did	-9033
▁Dod	-9034
▁Dus	-9035
▁END	-9036
▁FIT	-9037
▁FOX	-9038
▁Gra	-9039
▁Gre	-9040
▁Gro	-9041
▁Kid	-9042
▁Low	-9043
▁MER	-9044
▁Mat	-9045
▁Men	-9046
▁Mis	-9047
▁Osb	-9048
▁Own	-9049
▁Pom	-9050
▁RIG	-9051
▁Rod	-9052
▁SAC	-9053
▁Sad	-9054
▁Sil	-9055
▁Sol	-9056
▁Tar	-9057
▁Tem	-9058
▁Too	-9059
▁Vau	-9060
▁ain	-9061
▁awk	-9062
▁awn	-9063
▁beh	-9064
▁bir	-9065
▁bis	-9066
▁dar	-9067
▁deb	-9068
▁ded	-9069
▁dit	-9070
▁dra	-9071
▁fan	-9072
▁fid	-9073
▁hau	-9074
▁inj	-9075
▁ink	-9076
▁irr	-9077
▁jog	-9078
▁lad	-9079
▁lid	-9080
▁mas	-9081
▁max	-9082
▁mes	-9083
▁mow	-9084
▁mur	-9085
▁nam	-9086
▁nas	-9087
▁ole	-9088
▁peu	-9089
▁phl	-9090
▁pic	-9091
▁ren	-9092
▁rot	-9093
▁rud	-9094
▁sid	-9095
▁sob	-9096
▁sod	-9097
▁soj	-9098
▁sou	-9099
EAN	-9100
ESS	-9101
LAI	-9102
Los	-9103
Mid	-9104
ORD	-9105
aot	-9106
chy	-9107
irs	-9108
oot	-9109
ota	-9110
ote	-9111
urd	-9112
▁eh	-9113
CLAI	-9114
Chou	-9115
NESS	-9116
ORNE	-9117
agre	-9118
bent	-9119
icis	-9120
icut	-9121
imer	-9122
itim	-9123
mell	-9124
ntil	-9125
rely	-9126
uran	-9127
▁Loo	-9128
▁Tal	-9129
▁Tea	-9130
▁Tur	-9131
▁eet	-9132
▁hag	-9133
▁lic	-9134
▁lur	-9135
▁mim	-9136
▁rut	-9137
▁tan	-9138
▁tie	-9139
▁toy	-9140
▁tun	-9141
▁ugh	-9142
▁ult	-9143
▁wag	-9144
▁wan	-9145
▁web	-9146
▁wip	-9147
▁wis	-9148
▁wit	-9149
▁wot	-9150
AMBER	-9151
About	-9152
Crims	-9153
EANNE	-9154
ENTAL	-9155
Fancy	-9156
ICHAR	-9157
Until	-9158
Wrong	-9159
abled	-9160
abour	-9161
ademy	-9162
again	-9163
ailro	-9164
aises	-9165
akery	-9166
akota	-9167
allel	-9168
ambit	-9169
andal	-9170
anion	-9171
annes	-9172
aotal	-9173
arily	-9174
arlem	-9175
arpon	-9176
artet	-9177
arved	-9178
astly	-9179
attre	-9180
beach	-9181
chair	-9182
cheth	-9183
choon	-9184
clair	-9185
cohol	-9186
count	-9187
crate	-9188
dance	-9189
dding	-9190
dozen	-9191
eming	-9192
enner	-9193
epend	-9194
erget	-9195
eries	-9196
ersed	-9197
essim	-9198
estic	-9199
May	-9200
Met	-9201
Six	-9202
ago	-9203
div	-9204
etr	-9205
gay	-9206
nac	-9207
ppi	-9208
uci	-9209
uly	-9210
xom	-9211
yse	-9212
▁PU	-9213
▁ud	-9214
does	-9215
esse	-9216
iked	-9217
ippi	-9218
oman	-9219
omot	-9220
ript	-9221
seat	-9222
sein	-9223
send	-9224
▁dun	-9225
▁fet	-9226
▁map	-9227
▁net	-9228
▁ont	-9229
bines	-9230
etent	-9231
fifth	-9232
gions	-9233
gradu	-9234
honne	-9235
human	-9236
icago	-9237
idesp	-9238
iftly	-9239
igued	-9240
ilion	-9241
illau	-9242
inder	-9243
irard	-9244
irted	-9245
ishly	-9246
ittal	-9247
leine	-9248
liers	-9249
lieve	-9250
liked	-9251
offat	-9252
ograp	-9253
olent	-9254
oling	-9255
ommel	-9256
opled	-9257
orant	-9258
orary	-9259
order	-9260
ordin	-9261
orest	-9262
osies	-9263
otous	-9264
paper	-9265
ppers	-9266
ptile	-9267
rabic	-9268
razed	-9269
reeks	-9270
riers	-9271
ruise	-9272
shell	-9273
ssist	-9274
still	-9275
stone	-9276
suing	-9277
tears	-9278
throw	-9279
ulsed	-9280
ustle	-9281
valry	-9282
vated	-9283
watch	-9284
xolog	-9285
▁Band	-9286
▁Beng	-9287
▁Buci	-9288
▁Bull	-9289
▁Cerc	-9290
▁Clun	-9291
▁Cold	-9292
▁Conf	-9293
▁DIED	-9294
▁Ever	-9295
▁Fear	-9296
▁Fine	-9297
▁Have	-9298
▁Isle	-9299
,”—	-9300
Hay	-9301
OUL	-9302
Rem	-9303
lam	-9304
oop	-9305
too	-9306
Mine	-9307
More	-9308
RACT	-9309
Same	-9310
aign	-9311
bris	-9312
culi	-9313
inal	-9314
iral	-9315
ital	-9316
ndry	-9317
owal	-9318
pour	-9319
rian	-9320
take	-9321
umsy	-9322
vion	-9323
▁Bac	-9324
▁Car	-9325
▁Cur	-9326
▁Inc	-9327
▁Ref	-9328
▁dau	-9329
▁epo	-9330
▁poo	-9331
▁wri	-9332
andes	-9333
atisf	-9334
aying	-9335
chain	-9336
cible	-9337
could	-9338
cream	-9339
iture	-9340
ivers	-9341
lamme	-9342
stion	-9343
store	-9344
upied	-9345
▁Buff	-9346
▁Lach	-9347
▁Lent	-9348
▁Long	-9349
▁Loup	-9350
▁Mile	-9351
▁Milk	-9352
▁Mond	-9353
▁Much	-9354
▁PLEA	-9355
▁Pair	-9356
▁Pant	-9357
▁Pard	-9358
▁Plat	-9359
▁Père	-9360
▁READ	-9361
▁Reli	-9362
▁Repl	-9363
▁SOUL	-9364
▁Sect	-9365
▁Stuy	-9366
▁Thou	-9367
▁Vaug	-9368
▁Verd	-9369
▁WORK	-9370
▁Yvet	-9371
▁ache	-9372
▁amid	-9373
▁ante	-9374
▁aver	-9375
▁bade	-9376
▁barg	-9377
▁base	-9378
▁beam	-9379
▁belf	-9380
▁blan	-9381
▁blin	-9382
▁bone	-9383
▁bonn	-9384
▁bras	-9385
▁broo	-9386
▁bury	-9387
▁chos	-9388
▁clue	-9389
▁clut	-9390
▁cove	-9391
▁crun	-9392
▁dapp	-9393
▁deft	-9394
▁dire	-9395
▁drap	-9396
▁dumb	-9397
▁eats	-9398
▁educ	-9399
,—”	-9400
3.”	-9401
Def	-9402
lip	-9403
lun	-9404
nih	-9405
▁Ap	-9406
▁SU	-9407
West	-9408
pler	-9409
ruly	-9410
▁Ast	-9411
▁Ave	-9412
▁Cic	-9413
▁Cir	-9414
▁San	-9415
▁Sen	-9416
▁hab	-9417
▁sha	-9418
573.”	-9419
inine	-9420
mbles	-9421
ooked	-9422
rings	-9423
sweet	-9424
terly	-9425
thday	-9426
xible	-9427
▁Aust	-9428
▁Gart	-9429
▁SUCH	-9430
▁agon	-9431
▁beck	-9432
▁blot	-9433
▁embe	-9434
▁emot	-9435
▁encl	-9436
▁fans	-9437
▁fasc	-9438
▁fauc	-9439
▁fest	-9440
▁fili	-9441
▁flap	-9442
▁flip	-9443
▁flit	-9444
▁fous	-9445
▁fund	-9446
▁féro	-9447
▁fête	-9448
▁gend	-9449
▁gerf	-9450
▁gods	-9451
▁grud	-9452
▁heal	-9453
▁hord	-9454
▁hush	-9455
▁impr	-9456
▁inac	-9457
▁intr	-9458
▁kios	-9459
▁leap	-9460
▁lect	-9461
▁legg	-9462
▁lent	-9463
▁leur	-9464
▁mach	-9465
▁mane	-9466
▁manu	-9467
▁mate	-9468
▁matt	-9469
▁meal	-9470
▁meas	-9471
▁menu	-9472
▁moat	-9473
▁mull	-9474
▁myri	-9475
▁nine	-9476
▁nonp	-9477
▁obso	-9478
▁obtr	-9479
▁oily	-9480
▁ones	-9481
▁orph	-9482
▁pant	-9483
▁pell	-9484
▁pent	-9485
▁phew	-9486
▁phot	-9487
▁picn	-9488
▁plag	-9489
▁plun	-9490
▁prow	-9491
▁purs	-9492
▁push	-9493
▁race	-9494
▁rack	-9495
▁reac	-9496
▁reim	-9497
▁rend	-9498
▁retr	-9499
Occ	-9500
chu	-9501
ddy	-9502
www	-9503
▁41	-9504
▁BY	-9505
▁Ba	-9506
▁Wo	-9507
▁‘_	-9508
Cast	-9509
FORE	-9510
Hast	-9511
Into	-9512
Last	-9513
chre	-9514
ench	-9515
leil	-9516
such	-9517
wall	-9518
▁Bon	-9519
▁Bri	-9520
▁Wed	-9521
▁cul	-9522
▁rim	-9523
▁til	-9524
▁vif	-9525
▁vos	-9526
▁yel	-9527
Again	-9528
Jacqu	-9529
Occup	-9530
ggled	-9531
hoddy	-9532
irmed	-9533
luous	-9534
omach	-9535
perte	-9536
thews	-9537
uated	-9538
▁EXCE	-9539
▁Sher	-9540
▁Tony	-9541
▁Turn	-9542
▁ciel	-9543
▁culm	-9544
▁dais	-9545
▁dirt	-9546
▁hail	-9547
▁hood	-9548
▁lawf	-9549
▁peac	-9550
▁purr	-9551
▁père	-9552
▁rift	-9553
▁rods	-9554
▁rung	-9555
▁sais	-9556
▁seam	-9557
▁sein	-9558
▁sewn	-9559
▁slin	-9560
▁sons	-9561
▁spat	-9562
▁spur	-9563
▁subt	-9564
▁sunb	-9565
▁surm	-9566
▁tawn	-9567
▁thaw	-9568
▁tide	-9569
▁tiss	-9570
▁tour	-9571
▁trio	-9572
▁trod	-9573
▁très	-9574
▁ture	-9575
▁twir	-9576
▁unct	-9577
▁unsc	-9578
▁unto	-9579
▁upli	-9580
▁uses	-9581
▁weap	-9582
▁whar	-9583
▁wise	-9584
▁wiss	-9585
▁witt	-9586
▁yard	-9587
▁yess	-9588
Couldn	-9589
Heaven	-9590
Meteor	-9591
Osceol	-9592
Provid	-9593
ROTHER	-9594
Surely	-9595
achman	-9596
ackets	-9597
active	-9598
ainted	-9599
!”—	-9600
ael	-9601
elp	-9602
iqu	-9603
’?”	-9604
▁(8	-9605
▁MM	-9606
▁MR	-9607
▁MY	-9608
ESTI	-9609
bull	-9610
crow	-9611
died	-9612
eles	-9613
elve	-9614
hake	-9615
hard	-9616
onqu	-9617
qued	-9618
rugs	-9619
spar	-9620
upil	-9621
usky	-9622
wind	-9623
▁190	-9624
▁DON	-9625
▁Tel	-9626
▁Von	-9627
▁aub	-9628
Caron	-9629
Would	-9630
atoon	-9631
burse	-9632
great	-9633
ifine	-9634
ifted	-9635
roved	-9636
tists	-9637
ureux	-9638
▁(862	-9639
▁Chav	-9640
▁Food	-9641
▁Help	-9642
▁ador	-9643
▁doom	-9644
▁ranc	-9645
▁tale	-9646
ESTINY	-9647
afraid	-9648
akably	-9649
alding	-9650
allery	-9651
alling	-9652
alsied	-9653
ammers	-9654
amming	-9655
anding	-9656
aneous	-9657
annels	-9658
athlet	-9659
boding	-9660
calcul	-9661
caught	-9662
coming	-9663
derous	-9664
débris	-9665
earned	-9666
eedunk	-9667
ellows	-9668
epervi	-9669
ertion	-9670
escend	-9671
father	-9672
fessor	-9673
iately	-9674
icaded	-9675
ichael	-9676
icient	-9677
ickets	-9678
idious	-9679
igious	-9680
ignity	-9681
illons	-9682
indful	-9683
inople	-9684
irming	-9685
isette	-9686
isfied	-9687
itable	-9688
itical	-9689
itizen	-9690
jessed	-9691
leeves	-9692
mistry	-9693
mpired	-9694
nacles	-9695
ningly	-9696
olling	-9697
oncern	-9698
orious	-9699
Voy	-9700
ohn	-9701
’!”	-9702
▁PO	-9703
2154	-9704
Dame	-9705
Kind	-9706
Seek	-9707
game	-9708
gium	-9709
gong	-9710
ndem	-9711
onge	-9712
onym	-9713
outs	-9714
sack	-9715
tout	-9716
well	-9717
▁Pot	-9718
▁Put	-9719
▁arc	-9720
▁chi	-9721
▁rak	-9722
among	-9723
iners	-9724
islas	-9725
nonym	-9726
ortar	-9727
outre	-9728
shall	-9729
ssils	-9730
▁1910	-9731
▁Cong	-9732
▁Head	-9733
▁Hell	-9734
▁Issy	-9735
▁John	-9736
▁Juds	-9737
▁PHIL	-9738
▁POSS	-9739
▁Soup	-9740
▁amet	-9741
▁dorm	-9742
▁envi	-9743
▁lack	-9744
▁lout	-9745
▁neut	-9746
▁nook	-9747
▁pack	-9748
▁spin	-9749
▁spit	-9750
▁tank	-9751
▁text	-9752
▁vall	-9753
21541.	-9754
Voyons	-9755
annies	-9756
olonel	-9757
orting	-9758
oulded	-9759
oursed	-9760
ourser	-9761
pected	-9762
pourbo	-9763
ppings	-9764
raphed	-9765
repres	-9766
ribute	-9767
ricate	-9768
ronted	-9769
serted	-9770
soever	-9771
ssians	-9772
straps	-9773
suring	-9774
séance	-9775
tering	-9776
udence	-9777
uesday	-9778
urally	-9779
urance	-9780
usetts	-9781
vesant	-9782
vetous	-9783
witted	-9784
worthy	-9785
▁1917,	-9786
▁ANYTH	-9787
▁Apart	-9788
▁Bayon	-9789
▁Brigs	-9790
▁Cafés	-9791
▁Capuc	-9792
▁Cheer	-9793
▁Chief	-9794
▁Clear	-9795
▁Colle	-9796
▁Could	-9797
▁Demhe	-9798
▁Dimly	-9799
apé	-9800
bus	-9801
▁GI	-9802
asus	-9803
aube	-9804
bore	-9805
ieis	-9806
inus	-9807
kosh	-9808
lord	-9809
nect	-9810
some	-9811
ulse	-9812
vial	-9813
west	-9814
▁Fur	-9815
▁Yes	-9816
▁eru	-9817
▁mos	-9818
▁vat	-9819
▁vie	-9820
Right	-9821
alect	-9822
andom	-9823
anish	-9824
ipher	-9825
irass	-9826
liest	-9827
rouge	-9828
▁Fast	-9829
▁GIVE	-9830
▁Game	-9831
▁Home	-9832
▁JEST	-9833
▁Rome	-9834
▁Wyse	-9835
▁chef	-9836
▁coup	-9837
▁lord	-9838
▁rasc	-9839
▁wist	-9840
aution	-9841
canapé	-9842
esting	-9843
shkosh	-9844
umbler	-9845
umours	-9846
▁Duran	-9847
▁Forty	-9848
▁Hawai	-9849
▁Inval	-9850
▁Ionic	-9851
▁Jelly	-9852
▁Jimmy	-9853
▁Known	-9854
▁Lance	-9855
▁Mount	-9856
▁Odéon	-9857
▁Plaza	-9858
▁REMED	-9859
▁RIGHT	-9860
▁ROBER	-9861
▁Roman	-9862
▁Songs	-9863
▁Squad	-9864
▁Staff	-9865
▁Thank	-9866
▁Their	-9867
▁Tiens	-9868
▁Vigor	-9869
▁Watch	-9870
▁Water	-9871
▁Whyte	-9872
▁Would	-9873
▁acted	-9874
▁adore	-9875
▁advis	-9876
▁alche	-9877
▁alter	-9878
▁amate	-9879
▁amiss	-9880
▁amply	-9881
▁anaem	-9882
▁argum	-9883
▁arist	-9884
▁armes	-9885
▁ashen	-9886
▁atoms	-9887
▁atone	-9888
▁bends	-9889
▁berth	-9890
▁blame	-9891
▁blare	-9892
▁bookc	-9893
▁brave	-9894
▁	-9895
e	-9896
t	-9897
a	-9898
o	-9899
n	-9900
i	-9901
h	-9902
s	-9903
r	-9904
d	-9905
l	-9906
u	-9907
m	-9908
c	-9909
w	-9910
g	-9911
f	-9912
,	-9913
y	-9914
p	-9915
b	-9916
.	-9917
k	-9918
v	-9919
I	-9920
“	-9921
”	-9922
T	-9923
’	-9924
H	-9925
S	-9926
A	-9927
-	-9928
C	-9929
W	-9930
—	-9931
B	-9932
?	-9933
M	-9934
!	-9935
E	-9936
x	-9937
P	-9938
F	-9939
R	-9940
;	-9941
q	-9942
G	-9943
_	-9944
O	-9945
L	-9946
j	-9947
Y	-9948
N	-9949
D	-9950
z	-9951
J	-9952
:	-9953
é	-9954
V	-9955
1	-9956
U	-9957
K	-9958
è	-9959
0	-9960
Q	-9961
*	-9962
9	-9963
‘	-9964
(	-9965
)	-9966
2	-9967
8	-9968
3	-9969
7	-9970
5	-9971
à	-9972
+	-9973
4	-9974
6	-9975
|	-9976
ç	-9977
ê	-9978
ô	-9979
$	-9980
/	-9981
É	-9982
â	-9983
œ	-9984
X	-9985
À	-9986
•	-9987
#	-9988
%	-9989
[	-9990
]	-9991
Ç	-9992
á	-9993
î	-9994
