<unk>	0
<s>	0
</s>	0
<PAD>	0
<UNK>	0
he	-0
▁t	-1
▁a	-2
in	-3
▁s	-4
▁the	-5
▁w	-6
ed	-7
nd	-8
▁o	-9
re	-10
er	-11
ou	-12
▁b	-13
▁h	-14
▁and	-15
▁c	-16
▁f	-17
▁m	-18
it	-19
is	-20
at	-21
ing	-22
on	-23
en	-24
or	-25
▁I	-26
▁d	-27
▁he	-28
as	-29
▁to	-30
▁l	-31
ar	-32
▁of	-33
▁in	-34
▁“	-35
es	-36
ll	-37
an	-38
▁p	-39
ro	-40
▁th	-41
▁n	-42
le	-43
ow	-44
ut	-45
▁g	-46
ad	-47
▁T	-48
id	-49
ic	-50
▁e	-51
▁y	-52
ot	-53
▁st	-54
▁be	-55
im	-56
ith	-57
ent	-58
gh	-59
ur	-60
▁wh	-61
ly	-62
om	-63
▁with	-64
▁was	-65
se	-66
▁you	-67
ve	-68
ld	-69
ac	-70
▁it	-71
▁on	-72
st	-73
▁his	-74
et	-75
ver	-76
▁re	-77
▁u	-78
al	-79
ay	-80
ir	-81
▁The	-82
am	-83
oo	-84
ght	-85
ri	-86
,”	-87
ion	-88
▁me	-89
▁at	-90
▁S	-91
▁her	-92
▁for	-93
▁H	-94
▁that	-95
▁my	-96
ter	-97
▁as	-98
▁an	-99
▁him	-100
.”	-101
ain	-102
▁sa	-103
▁A	-104
▁had	-105
li	-106
▁but	-107
ce	-108
▁ha	-109
▁C	-110
▁k	-111
▁sh	-112
▁not	-113
▁she	-114
▁we	-115
il	-116
rom	-117
▁se	-118
ch	-119
all	-120
▁r	-121
ked	-122
▁B	-123
▁is	-124
ct	-125
ast	-126
▁from	-127
▁li	-128
ke	-129
her	-130
▁W	-131
▁said	-132
ould	-133
▁de	-134
pp	-135
▁M	-136
hed	-137
▁kn	-138
nt	-139
▁do	-140
ess	-141
?”	-142
el	-143
ill	-144
▁su	-145
rou	-146
our	-147
qu	-148
ard	-149
▁up	-150
▁ch	-151
ame	-152
▁int	-153
ss	-154
▁sp	-155
ich	-156
ff	-157
ag	-158
▁P	-159
ong	-160
▁which	-161
ell	-162
▁ne	-163
em	-164
▁whe	-165
ack	-166
▁so	-167
out	-168
ie	-169
and	-170
ore	-171
▁He	-172
▁v	-173
ind	-174
▁F	-175
ord	-176
ist	-177
us	-178
ome	-179
▁loo	-180
ap	-181
▁into	-182
▁G	-183
▁by	-184
!”	-185
est	-186
▁ro	-187
au	-188
ation	-189
if	-190
ant	-191
um	-192
▁al	-193
ace	-194
ect	-195
▁ab	-196
art	-197
led	-198
ber	-199
▁ag	-200
ble	-201
urn	-202
▁have	-203
▁or	-204
▁out	-205
very	-206
hing	-207
▁fl	-208
▁con	-209
ig	-210
ood	-211
pt	-212
ass	-213
▁le	-214
▁were	-215
▁L	-216
ous	-217
▁ex	-218
▁all	-219
ue	-220
▁know	-221
▁sm	-222
ight	-223
ol	-224
▁wor	-225
▁R	-226
ul	-227
are	-228
ust	-229
ra	-230
▁cl	-231
▁Then	-232
▁are	-233
un	-234
ile	-235
▁ey	-236
ck	-237
ers	-238
way	-239
▁this	-240
itt	-241
▁bl	-242
▁who	-243
lf	-244
ound	-245
▁then	-246
▁over	-247
ate	-248
ine	-249
op	-250
▁ar	-251
ered	-252
▁man	-253
▁mo	-254
▁when	-255
ang	-256
▁am	-257
▁go	-258
▁looked	-259
▁again	-260
hat	-261
ance	-262
liff	-263
ure	-264
ry	-265
▁can	-266
ings	-267
lifford	-268
ide	-269
▁turn	-270
▁E	-271
--	-272
wn	-273
ite	-274
one	-275
▁one	-276
ud	-277
king	-278
▁Clifford	-279
ried	-280
self	-281
▁rep	-282
own	-283
ep	-284
▁j	-285
▁no	-286
▁eyes	-287
▁about	-288
,—	-289
nder	-290
ther	-291
▁there	-292
ive	-293
ear	-294
▁It	-295
▁came	-296
▁hand	-297
ice	-298
ons	-299
ort	-300
▁tim	-301
▁O	-302
▁them	-303
▁lo	-304
▁pl	-305
▁com	-306
rough	-307
▁down	-308
fter	-309
▁too	-310
▁Y	-311
▁any	-312
▁through	-313
ge	-314
ild	-315
ved	-316
▁gl	-317
▁_	-318
ity	-319
▁fo	-320
▁qu	-321
▁face	-322
▁your	-323
▁would	-324
os	-325
res	-326
▁ta	-327
▁She	-328
▁like	-329
▁they	-330
ven	-331
▁ac	-332
▁un	-333
▁now	-334
te	-335
▁tr	-336
ated	-337
ment	-338
▁pass	-339
fore	-340
▁did	-341
▁door	-342
▁will	-343
▁pro	-344
▁been	-345
▁head	-346
▁could	-347
ew	-348
rent	-349
th	-350
▁D	-351
ittle	-352
ened	-353
▁what	-354
ft	-355
ru	-356
air	-357
▁little	-358
ks	-359
reat	-360
▁dis	-361
▁see	-362
▁back	-363
▁stre	-364
▁before	-365
▁co	-366
▁tw	-367
ott	-368
▁thou	-369
by	-370
▁J	-371
▁sc	-372
▁Hast	-373
vi	-374
orn	-375
pped	-376
▁time	-377
▁turned	-378
pl	-379
▁their	-380
▁po	-381
ject	-382
▁beg	-383
▁sat	-384
▁other	-385
▁very	-386
ink	-387
▁after	-388
hen	-389
ched	-390
▁sil	-391
▁br	-392
▁op	-393
▁sw	-394
▁wind	-395
▁Hastings	-396
▁N	-397
ish	-398
row	-399
▁mom	-400
▁moment	-401
ress	-402
▁away	-403
ire	-404
ull	-405
right	-406
ab	-407
let	-408
▁Trent	-409
ng	-410
ick	-411
ree	-412
▁St	-413
▁thought	-414
▁mar	-415
enber	-416
▁stud	-417
▁under	-418
▁Mr	-419
ross	-420
▁say	-421
enberg	-422
▁never	-423
utenberg	-424
dd	-425
▁vo	-426
▁don	-427
▁off	-428
▁seem	-429
ign	-430
▁long	-431
▁some	-432
▁fe	-433
ious	-434
ling	-435
▁cried	-436
▁should	-437
▁every	-438
▁if	-439
▁per	-440
▁wat	-441
ark	-442
ount	-443
aw	-444
mer	-445
—”	-446
▁im	-447
ward	-448
▁Pro	-449
▁its	-450
round	-451
▁more	-452
▁must	-453
▁Gutenberg	-454
iss	-455
ron	-456
ted	-457
less	-458
▁arm	-459
▁lau	-460
▁last	-461
▁went	-462
iz	-463
▁us	-464
▁only	-465
ished	-466
▁while	-467
▁window	-468
ies	-469
▁dre	-470
▁old	-471
▁saw	-472
▁here	-473
▁than	-474
▁street	-475
mb	-476
anc	-477
irl	-478
ence	-479
omet	-480
ellow	-481
▁white	-482
▁Project	-483
cl	-484
red	-485
ally	-486
▁own	-487
light	-488
▁began	-489
▁voice	-490
od	-491
ak	-492
ook	-493
▁girl	-494
▁smil	-495
ave	-496
▁how	-497
atter	-498
▁cour	-499
▁heart	-500
co	-501
ps	-502
lli	-503
ose	-504
▁Th	-505
▁cont	-506
▁upon	-507
▁V	-508
▁bec	-509
▁day	-510
▁work	-511
▁seemed	-512
----	-513
▁knew	-514
▁light	-515
▁somet	-516
▁passed	-517
The	-518
age	-519
ied	-520
ret	-521
aint	-522
owed	-523
▁But	-524
▁ent	-525
▁sun	-526
▁took	-527
▁gr	-528
oris	-529
▁spe	-530
▁unt	-531
▁rose	-532
av	-533
ars	-534
ove	-535
per	-536
able	-537
▁cur	-538
▁ter	-539
▁wal	-540
ently	-541
lliott	-542
▁where	-543
▁1	-544
irst	-545
▁two	-546
other	-547
▁stood	-548
▁Elliott	-549
ath	-550
ung	-551
You	-552
ade	-553
ake	-554
▁en	-555
▁app	-556
▁Boris	-557
arm	-558
low	-559
▁ke	-560
▁first	-561
▁until	-562
ne	-563
sw	-564
ene	-565
▁rem	-566
▁think	-567
hy	-568
alc	-569
oke	-570
▁ob	-571
▁wa	-572
ieur	-573
lied	-574
▁call	-575
elby	-576
ilde	-577
▁tre	-578
▁West	-579
▁read	-580
▁Selby	-581
▁Wilde	-582
▁asked	-583
▁myself	-584
oc	-585
ach	-586
ank	-587
▁pa	-588
▁ret	-589
ier	-590
ise	-591
▁You	-592
onsieur	-593
▁himself	-594
yl	-595
▁pe	-596
▁ra	-597
▁des	-598
ather	-599
▁When	-600
▁among	-601
▁shall	-602
▁something	-603
arr	-604
ary	-605
end	-606
leas	-607
ness	-608
ouse	-609
▁che	-610
▁end	-611
▁has	-612
▁dist	-613
▁along	-614
▁found	-615
▁across	-616
ough	-617
▁way	-618
lette	-619
▁answ	-620
▁come	-621
▁room	-622
▁young	-623
▁replied	-624
ful	-625
ged	-626
▁cr	-627
rang	-628
▁For	-629
HE	-630
▁K	-631
but	-632
▁bo	-633
ghed	-634
hind	-635
▁gre	-636
▁foll	-637
▁open	-638
▁word	-639
fe	-640
ty	-641
ily	-642
oor	-643
▁la	-644
ited	-645
▁bre	-646
▁cat	-647
utter	-648
▁tell	-649
act	-650
ren	-651
via	-652
▁At	-653
▁dr	-654
ured	-655
▁bet	-656
arter	-657
meric	-658
ylvia	-659
▁Tess	-660
▁care	-661
ations	-662
▁black	-663
▁house	-664
▁without	-665
uch	-666
ves	-667
▁Ar	-668
▁ri	-669
What	-670
ates	-671
ving	-672
▁fin	-673
▁hor	-674
▁set	-675
▁even	-676
▁behind	-677
hes	-678
the	-679
urm	-680
▁wr	-681
▁bro	-682
▁squ	-683
▁ste	-684
▁They	-685
▁comp	-686
▁good	-687
▁inst	-688
▁name	-689
▁stru	-690
▁night	-691
▁pleas	-692
▁still	-693
▁around	-694
It	-695
elt	-696
▁sk	-697
ions	-698
▁new	-699
▁falc	-700
▁much	-701
▁Americ	-702
▁smiled	-703
sp	-704
ens	-705
lie	-706
ause	-707
cept	-708
lect	-709
▁bed	-710
▁bes	-711
▁let	-712
ained	-713
▁fell	-714
▁love	-715
▁rest	-716
▁same	-717
▁hands	-718
▁might	-719
▁Tessie	-720
▁nothing	-721
Oh	-722
io	-723
att	-724
bed	-725
ared	-726
▁dro	-727
▁ser	-728
▁left	-729
▁above	-730
▁heard	-731
▁sound	-732
Yes	-733
ost	-734
▁In	-735
here	-736
▁Rue	-737
▁imp	-738
▁pre	-739
▁felt	-740
▁murm	-741
▁Sylvia	-742
▁beside	-743
▁laughed	-744
▁Co	-745
ired	-746
ised	-747
▁Con	-748
▁THE	-749
▁lay	-750
▁supp	-751
▁course	-752
▁toward	-753
▁U	-754
ans	-755
den	-756
ener	-757
▁cop	-758
▁may	-759
▁great	-760
▁small	-761
▁another	-762
▁Monsieur	-763
ub	-764
ody	-765
ped	-766
ense	-767
lled	-768
▁Lou	-769
▁gard	-770
▁list	-771
▁pres	-772
▁such	-773
▁dream	-774
▁contin	-775
▁return	-776
ird	-777
oul	-778
viè	-779
▁col	-780
ement	-781
viève	-782
▁look	-783
▁part	-784
▁right	-785
▁table	-786
▁world	-787
▁studio	-788
eneviève	-789
▁Colette	-790
ued	-791
▁1.	-792
▁Ch	-793
▁di	-794
ined	-795
ized	-796
ting	-797
urch	-798
▁Haw	-799
▁acc	-800
▁bit	-801
▁exp	-802
▁hat	-803
▁Jack	-804
▁told	-805
▁trou	-806
▁well	-807
▁year	-808
▁floor	-809
▁start	-810
ho	-811
man	-812
orm	-813
oud	-814
▁ad	-815
adow	-816
berk	-817
tain	-818
allow	-819
▁There	-820
▁falcon	-821
▁Hawberk	-822
up	-823
aps	-824
get	-825
ond	-826
ser	-827
▁aw	-828
aced	-829
bled	-830
ning	-831
▁att	-832
▁cle	-833
▁eas	-834
▁fri	-835
▁our	-836
▁yet	-837
ching	-838
▁King	-839
▁cann	-840
▁Louis	-841
▁followed	-842
No	-843
so	-844
ock	-845
▁Se	-846
▁bu	-847
▁sl	-848
ided	-849
ying	-850
▁car	-851
▁hur	-852
▁rue	-853
▁just	-854
▁made	-855
▁once	-856
▁take	-857
▁Yellow	-858
▁friend	-859
▁marble	-860
▁Geneviève	-861
cc	-862
aut	-863
▁sn	-864
aned	-865
ople	-866
▁Par	-867
▁dem	-868
ering	-869
▁gold	-870
▁elect	-871
▁answered	-872
Qu	-873
ip	-874
ms	-875
no	-876
ets	-877
ial	-878
iet	-879
les	-880
dden	-881
▁add	-882
▁air	-883
▁alm	-884
▁ins	-885
▁nor	-886
▁par	-887
▁ref	-888
▁sur	-889
▁tou	-890
▁ever	-891
▁find	-892
▁people	-893
▁looking	-894
▁	-895
e	-896
t	-897
a	-898
o	-899
n	-900
i	-901
h	-902
s	-903
r	-904
d	-905
l	-906
u	-907
m	-908
c	-909
w	-910
g	-911
f	-912
,	-913
y	-914
p	-915
b	-916
.	-917
k	-918
v	-919
I	-920
“	-921
”	-922
T	-923
’	-924
H	-925
S	-926
A	-927
-	-928
C	-929
W	-930
—	-931
B	-932
?	-933
M	-934
!	-935
E	-936
x	-937
P	-938
F	-939
R	-940
;	-941
q	-942
G	-943
_	-944
O	-945
L	-946
j	-947
Y	-948
N	-949
D	-950
z	-951
J	-952
:	-953
é	-954
V	-955
1	-956
U	-957
K	-958
è	-959
0	-960
Q	-961
*	-962
9	-963
‘	-964
(	-965
)	-966
2	-967
8	-968
3	-969
7	-970
5	-971
à	-972
+	-973
4	-974
6	-975
|	-976
ç	-977
ê	-978
ô	-979
$	-980
/	-981
É	-982
â	-983
œ	-984
X	-985
À	-986
•	-987
#	-988
%	-989
[	-990
]	-991
Ç	-992
á	-993
î	-994
