<unk>	0
<s>	0
</s>	0
<PAD>	0
<UNK>	0
he	-0
▁t	-1
▁a	-2
in	-3
▁s	-4
▁the	-5
▁w	-6
ed	-7
nd	-8
▁o	-9
re	-10
er	-11
ou	-12
▁b	-13
▁h	-14
▁and	-15
▁c	-16
▁f	-17
▁m	-18
it	-19
is	-20
at	-21
ing	-22
on	-23
en	-24
or	-25
▁I	-26
▁d	-27
▁he	-28
as	-29
▁to	-30
▁l	-31
ar	-32
▁of	-33
▁in	-34
▁“	-35
es	-36
ll	-37
an	-38
▁p	-39
ro	-40
▁th	-41
▁n	-42
le	-43
ow	-44
ut	-45
▁g	-46
ad	-47
▁T	-48
id	-49
ic	-50
▁e	-51
▁y	-52
ot	-53
▁st	-54
▁be	-55
im	-56
ith	-57
ent	-58
gh	-59
ur	-60
▁wh	-61
ly	-62
om	-63
▁with	-64
▁was	-65
se	-66
▁you	-67
ve	-68
ld	-69
ac	-70
▁it	-71
▁on	-72
st	-73
▁his	-74
et	-75
ver	-76
▁re	-77
▁u	-78
al	-79
ay	-80
ir	-81
▁The	-82
am	-83
oo	-84
ght	-85
ri	-86
,”	-87
ion	-88
▁me	-89
▁at	-90
▁S	-91
▁her	-92
▁for	-93
▁H	-94
▁that	-95
▁my	-96
ter	-97
▁as	-98
▁an	-99
▁him	-100
.”	-101
ain	-102
▁sa	-103
▁A	-104
▁had	-105
li	-106
▁but	-107
ce	-108
▁ha	-109
▁C	-110
▁k	-111
▁sh	-112
▁not	-113
▁she	-114
▁we	-115
il	-116
rom	-117
▁se	-118
ch	-119
all	-120
▁r	-121
ked	-122
▁B	-123
▁is	-124
ct	-125
ast	-126
▁from	-127
▁li	-128
ke	-129
her	-130
▁W	-131
▁said	-132
ould	-133
▁de	-134
pp	-135
▁M	-136
hed	-137
▁kn	-138
nt	-139
▁do	-140
ess	-141
?”	-142
el	-143
ill	-144
▁su	-145
rou	-146
our	-147
qu	-148
ard	-149
▁up	-150
▁ch	-151
ame	-152
▁int	-153
ss	-154
▁sp	-155
ich	-156
ff	-157
ag	-158
▁P	-159
ong	-160
▁which	-161
ell	-162
▁ne	-163
em	-164
▁whe	-165
ack	-166
▁so	-167
out	-168
ie	-169
and	-170
ore	-171
▁He	-172
▁v	-173
ind	-174
▁F	-175
ord	-176
ist	-177
us	-178
ome	-179
▁loo	-180
ap	-181
▁into	-182
▁G	-183
▁by	-184
!”	-185
est	-186
▁ro	-187
au	-188
ation	-189
if	-190
ant	-191
um	-192
▁al	-193
ace	-194
ect	-195
▁ab	-196
art	-197
led	-198
ber	-199
▁ag	-200
ble	-201
urn	-202
▁have	-203
▁or	-204
▁out	-205
very	-206
hing	-207
▁fl	-208
▁con	-209
ig	-210
ood	-211
pt	-212
ass	-213
▁le	-214
▁were	-215
▁L	-216
ous	-217
▁ex	-218
▁all	-219
ue	-220
▁know	-221
▁sm	-222
ight	-223
ol	-224
▁wor	-225
▁R	-226
ul	-227
are	-228
ust	-229
ra	-230
▁cl	-231
▁Then	-232
▁are	-233
un	-234
ile	-235
▁ey	-236
ck	-237
ers	-238
way	-239
▁this	-240
itt	-241
▁bl	-242
▁who	-243
lf	-244
ound	-245
▁then	-246
▁over	-247
ate	-248
ine	-249
op	-250
▁ar	-251
ered	-252
▁man	-253
▁mo	-254
▁when	-255
ang	-256
▁am	-257
▁go	-258
▁looked	-259
▁again	-260
hat	-261
ance	-262
liff	-263
ure	-264
ry	-265
▁can	-266
ings	-267
lifford	-268
ide	-269
▁turn	-270
▁E	-271
--	-272
wn	-273
ite	-274
one	-275
▁one	-276
ud	-277
king	-278
▁Clifford	-279
ried	-280
self	-281
▁rep	-282
own	-283
ep	-284
▁j	-285
▁no	-286
▁eyes	-287
▁about	-288
,—	-289
nder	-290
ther	-291
▁there	-292
ive	-293
ear	-294
▁It	-295
▁came	-296
▁hand	-297
ice	-298
ons	-299
ort	-300
▁tim	-301
▁O	-302
▁them	-303
▁lo	-304
▁pl	-305
▁com	-306
rough	-307
▁down	-308
fter	-309
▁too	-310
▁Y	-311
▁any	-312
▁through	-313
ge	-314
ild	-315
ved	-316
▁gl	-317
▁_	-318
ity	-319
▁fo	-320
▁qu	-321
▁face	-322
▁your	-323
▁would	-324
os	-325
res	-326
▁ta	-327
▁She	-328
▁like	-329
▁they	-330
ven	-331
▁ac	-332
▁un	-333
▁now	-334
te	-335
▁tr	-336
ated	-337
ment	-338
▁pass	-339
fore	-340
▁did	-341
▁door	-342
▁will	-343
▁pro	-344
▁been	-345
▁head	-346
▁could	-347
ew	-348
rent	-349
th	-350
▁D	-351
ittle	-352
ened	-353
▁what	-354
ft	-355
ru	-356
air	-357
▁little	-358
ks	-359
reat	-360
▁dis	-361
▁see	-362
▁back	-363
▁stre	-364
▁before	-365
▁co	-366
▁tw	-367
ott	-368
▁thou	-369
by	-370
▁J	-371
▁sc	-372
▁Hast	-373
vi	-374
orn	-375
pped	-376
▁time	-377
▁turned	-378
pl	-379
▁their	-380
▁po	-381
ject	-382
▁beg	-383
▁sat	-384
▁other	-385
▁very	-386
ink	-387
▁after	-388
hen	-389
ched	-390
▁sil	-391
▁br	-392
▁op	-393
▁sw	-394
▁wind	-395
▁Hastings	-396
▁N	-397
ish	-398
row	-399
▁mom	-400
▁moment	-401
ress	-402
▁away	-403
ire	-404
ull	-405
right	-406
ab	-407
let	-408
▁Trent	-409
ng	-410
ick	-411
ree	-412
▁St	-413
▁thought	-414
▁mar	-415
enber	-416
▁stud	-417
▁under	-418
▁Mr	-419
ross	-420
▁say	-421
enberg	-422
▁never	-423
utenberg	-424
dd	-425
▁vo	-426
▁don	-427
▁off	-428
▁seem	-429
ign	-430
▁long	-431
▁some	-432
▁fe	-433
ious	-434
ling	-435
▁cried	-436
▁should	-437
▁every	-438
▁if	-439
▁per	-440
▁wat	-441
ark	-442
ount	-443
aw	-444
mer	-445
—”	-446
▁im	-447
ward	-448
▁Pro	-449
▁its	-450
round	-451
▁more	-452
▁must	-453
▁Gutenberg	-454
iss	-455
ron	-456
ted	-457
less	-458
▁arm	-459
▁lau	-460
▁last	-461
▁went	-462
iz	-463
▁us	-464
▁only	-465
ished	-466
▁while	-467
▁window	-468
ies	-469
▁dre	-470
▁old	-471
▁saw	-472
▁here	-473
▁than	-474
▁street	-475
mb	-476
anc	-477
irl	-478
ence	-479
omet	-480
ellow	-481
▁white	-482
▁Project	-483
cl	-484
red	-485
ally	-486
▁own	-487
light	-488
▁began	-489
▁voice	-490
od	-491
ak	-492
ook	-493
▁girl	-494
▁smil	-495
ave	-496
▁how	-497
atter	-498
▁cour	-499
▁heart	-500
co	-501
ps	-502
lli	-503
ose	-504
▁Th	-505
▁cont	-506
▁upon	-507
▁V	-508
▁bec	-509
▁day	-510
▁work	-511
▁seemed	-512
----	-513
▁knew	-514
▁light	-515
▁somet	-516
▁passed	-517
The	-518
age	-519
ied	-520
ret	-521
aint	-522
owed	-523
▁But	-524
▁ent	-525
▁sun	-526
▁took	-527
▁gr	-528
oris	-529
▁spe	-530
▁unt	-531
▁rose	-532
av	-533
ars	-534
ove	-535
per	-536
able	-537
▁cur	-538
▁ter	-539
▁wal	-540
ently	-541
lliott	-542
▁where	-543
▁1	-544
irst	-545
▁two	-546
other	-547
▁stood	-548
▁Elliott	-549
ath	-550
ung	-551
You	-552
ade	-553
ake	-554
▁en	-555
▁app	-556
▁Boris	-557
arm	-558
low	-559
▁ke	-560
▁first	-561
▁until	-562
ne	-563
sw	-564
ene	-565
▁rem	-566
▁think	-567
hy	-568
alc	-569
oke	-570
▁ob	-571
▁wa	-572
ieur	-573
lied	-574
▁call	-575
elby	-576
ilde	-577
▁tre	-578
▁West	-579
▁read	-580
▁Selby	-581
▁Wilde	-582
▁asked	-583
▁myself	-584
oc	-585
ach	-586
ank	-587
▁pa	-588
▁ret	-589
ier	-590
ise	-591
▁You	-592
onsieur	-593
▁himself	-594
yl	-595
▁pe	-596
▁ra	-597
▁des	-598
ather	-599
▁When	-600
▁among	-601
▁shall	-602
▁something	-603
arr	-604
ary	-605
end	-606
leas	-607
ness	-608
ouse	-609
▁che	-610
▁end	-611
▁has	-612
▁dist	-613
▁along	-614
▁found	-615
▁across	-616
ough	-617
▁way	-618
lette	-619
▁answ	-620
▁come	-621
▁room	-622
▁young	-623
▁replied	-624
ful	-625
ged	-626
▁cr	-627
rang	-628
▁For	-629
HE	-630
▁K	-631
but	-632
▁bo	-633
ghed	-634
hind	-635
▁gre	-636
▁foll	-637
▁open	-638
▁word	-639
fe	-640
ty	-641
ily	-642
oor	-643
▁la	-644
ited	-645
▁bre	-646
▁cat	-647
utter	-648
▁tell	-649
act	-650
ren	-651
via	-652
▁At	-653
▁dr	-654
ured	-655
▁bet	-656
arter	-657
meric	-658
ylvia	-659
▁Tess	-660
▁care	-661
ations	-662
▁black	-663
▁house	-664
▁without	-665
uch	-666
ves	-667
▁Ar	-668
▁ri	-669
What	-670
ates	-671
ving	-672
▁fin	-673
▁hor	-674
▁set	-675
▁even	-676
▁behind	-677
hes	-678
the	-679
urm	-680
▁wr	-681
▁bro	-682
▁squ	-683
▁ste	-684
▁They	-685
▁comp	-686
▁good	-687
▁inst	-688
▁name	-689
▁stru	-690
▁night	-691
▁pleas	-692
▁still	-693
▁around	-694
It	-695
elt	-696
▁sk	-697
ions	-698
▁new	-699
▁falc	-700
▁much	-701
▁Americ	-702
▁smiled	-703
sp	-704
ens	-705
lie	-706
ause	-707
cept	-708
lect	-709
▁bed	-710
▁bes	-711
▁let	-712
ained	-713
▁fell	-714
▁love	-715
▁rest	-716
▁same	-717
▁hands	-718
▁might	-719
▁Tessie	-720
▁nothing	-721
Oh	-722
io	-723
att	-724
bed	-725
ared	-726
▁dro	-727
▁ser	-728
▁left	-729
▁above	-730
▁heard	-731
▁sound	-732
Yes	-733
ost	-734
▁In	-735
here	-736
▁Rue	-737
▁imp	-738
▁pre	-739
▁felt	-740
▁murm	-741
▁Sylvia	-742
▁beside	-743
▁laughed	-744
▁Co	-745
ired	-746
ised	-747
▁Con	-748
▁THE	-749
▁lay	-750
▁supp	-751
▁course	-752
▁toward	-753
▁U	-754
ans	-755
den	-756
ener	-757
▁cop	-758
▁may	-759
▁great	-760
▁small	-761
▁another	-762
▁Monsieur	-763
ub	-764
ody	-765
ped	-766
ense	-767
lled	-768
▁Lou	-769
▁gard	-770
▁list	-771
▁pres	-772
▁such	-773
▁dream	-774
▁contin	-775
▁return	-776
ird	-777
oul	-778
viè	-779
▁col	-780
ement	-781
viève	-782
▁look	-783
▁part	-784
▁right	-785
▁table	-786
▁world	-787
▁studio	-788
eneviève	-789
▁Colette	-790
ued	-791
▁1.	-792
▁Ch	-793
▁di	-794
ined	-795
ized	-796
ting	-797
urch	-798
▁Haw	-799
▁acc	-800
▁bit	-801
▁exp	-802
▁hat	-803
▁Jack	-804
▁told	-805
▁trou	-806
▁well	-807
▁year	-808
▁floor	-809
▁start	-810
ho	-811
man	-812
orm	-813
oud	-814
▁ad	-815
adow	-816
berk	-817
tain	-818
allow	-819
▁There	-820
▁falcon	-821
▁Hawberk	-822
up	-823
aps	-824
get	-825
ond	-826
ser	-827
▁aw	-828
aced	-829
bled	-830
ning	-831
▁att	-832
▁cle	-833
▁eas	-834
▁fri	-835
▁our	-836
▁yet	-837
ching	-838
▁King	-839
▁cann	-840
▁Louis	-841
▁followed	-842
No	-843
so	-844
ock	-845
▁Se	-846
▁bu	-847
▁sl	-848
ided	-849
ying	-850
▁car	-851
▁hur	-852
▁rue	-853
▁just	-854
▁made	-855
▁once	-856
▁take	-857
▁Yellow	-858
▁friend	-859
▁marble	-860
▁Geneviève	-861
cc	-862
aut	-863
▁sn	-864
aned	-865
ople	-866
▁Par	-867
▁dem	-868
ering	-869
▁gold	-870
▁elect	-871
▁answered	-872
Qu	-873
ip	-874
ms	-875
no	-876
ets	-877
ial	-878
iet	-879
les	-880
dden	-881
▁add	-882
▁air	-883
▁alm	-884
▁ins	-885
▁nor	-886
▁par	-887
▁ref	-888
▁sur	-889
▁tou	-890
▁ever	-891
▁find	-892
▁people	-893
▁looking	-894
az	-895
ts	-896
ée	-897
ash	-898
ery	-899
lec	-900
ror	-901
ton	-902
▁As	-903
▁hu	-904
ours	-905
▁And	-906
▁hal	-907
▁inc	-908
▁met	-909
eared	-910
thing	-911
vered	-912
▁flow	-913
▁keep	-914
▁alone	-915
▁going	-916
▁works	-917
▁church	-918
▁opened	-919
▁sudden	-920
xt	-921
ced	-922
eas	-923
igh	-924
ken	-925
oun	-926
raw	-927
ssi	-928
▁Qu	-929
▁We	-930
▁ho	-931
read	-932
▁Bra	-933
▁Row	-934
▁gra	-935
▁pol	-936
▁red	-937
▁why	-938
aking	-939
icked	-940
ither	-941
▁dead	-942
▁hear	-943
▁seen	-944
▁want	-945
▁belie	-946
▁Braith	-947
▁Rowden	-948
▁instant	-949
▁continued	-950
be	-951
ory	-952
ush	-953
you	-954
body	-955
osed	-956
used	-957
▁get	-958
▁swe	-959
arrée	-960
aught	-961
ember	-962
night	-963
oured	-964
▁expl	-965
▁lips	-966
▁perf	-967
orning	-968
▁Paris	-969
▁laugh	-970
▁smile	-971
▁three	-972
allowby	-973
▁Barrée	-974
▁struck	-975
▁American	-976
ek	-977
gg	-978
▁*	-979
▁’	-980
app	-981
▁fr	-982
airs	-983
▁His	-984
▁art	-985
▁cap	-986
▁dec	-987
▁emb	-988
▁hum	-989
▁ind	-990
▁sle	-991
ribut	-992
▁conf	-993
▁dark	-994
▁half	-995
▁repe	-996
entine	-997
▁beaut	-998
▁below	-999
▁cross	-1000
▁shook	-1001
▁spoke	-1002
▁almost	-1003
▁saying	-1004
▁shadow	-1005
▁walked	-1006
▁against	-1007
▁because	-1008
▁underst	-1009
▁watched	-1010
▁Fallowby	-1011
arn	-1012
lic	-1013
ool	-1014
▁ir	-1015
▁te	-1016
▁Her	-1017
▁fur	-1018
▁hel	-1019
▁hop	-1020
▁men	-1021
▁mod	-1022
ating	-1023
▁This	-1024
▁fall	-1025
▁poin	-1026
▁soft	-1027
stance	-1028
▁chang	-1029
▁raised	-1030
▁silent	-1031
--------	-1032
▁entered	-1033
▁morning	-1034
▁murmured	-1035
▁remember	-1036
He	-1037
we	-1038
ner	-1039
▁el	-1040
ater	-1041
haps	-1042
ront	-1043
▁ass	-1044
▁cre	-1045
▁reg	-1046
▁wom	-1047
ected	-1048
ronic	-1049
▁city	-1050
▁conc	-1051
▁copy	-1052
▁full	-1053
▁give	-1054
▁gone	-1055
▁most	-1056
▁wait	-1057
▁After	-1058
▁inter	-1059
▁thing	-1060
▁Quarter	-1061
▁believe	-1062
▁electronic	-1063
outh	-1064
ways	-1065
▁cry	-1066
▁dri	-1067
▁far	-1068
▁inf	-1069
▁sto	-1070
aster	-1071
otion	-1072
▁drew	-1073
▁hung	-1074
▁life	-1075
▁mine	-1076
▁mist	-1077
ressed	-1078
▁count	-1079
▁creat	-1080
▁front	-1081
▁quiet	-1082
▁speak	-1083
▁these	-1084
▁called	-1085
▁Constance	-1086
ix	-1087
me	-1088
And	-1089
Why	-1090
day	-1091
els	-1092
ern	-1093
▁em	-1094
That	-1095
adem	-1096
ayed	-1097
cile	-1098
iful	-1099
vern	-1100
▁eye	-1101
▁pur	-1102
▁put	-1103
▁sho	-1104
amber	-1105
ition	-1106
rench	-1107
▁also	-1108
▁mind	-1109
▁prom	-1110
▁sent	-1111
▁child	-1112
▁grave	-1113
▁obser	-1114
▁stand	-1115
▁leaned	-1116
▁sprang	-1117
▁within	-1118
▁started	-1119
▁turning	-1120
_,	-1121
oy	-1122
ux	-1123
eth	-1124
lev	-1125
oth	-1126
rap	-1127
uff	-1128
▁By	-1129
▁If	-1130
▁OF	-1131
▁pr	-1132
ince	-1133
room	-1134
rown	-1135
ully	-1136
▁mid	-1137
▁ran	-1138
▁use	-1139
ached	-1140
uring	-1141
▁char	-1142
▁corn	-1143
▁each	-1144
▁ears	-1145
▁fire	-1146
▁gate	-1147
▁happ	-1148
▁held	-1149
▁make	-1150
▁near	-1151
▁next	-1152
▁slow	-1153
uttered	-1154
▁demand	-1155
ze	-1156
▁‘	-1157
eps	-1158
lls	-1159
amed	-1160
ents	-1161
ific	-1162
▁bar	-1163
▁glo	-1164
aring	-1165
ented	-1166
orrow	-1167
▁What	-1168
▁bird	-1169
▁wish	-1170
▁offic	-1171
▁place	-1172
▁tremb	-1173
▁French	-1174
▁better	-1175
▁fellow	-1176
▁creature	-1177
ef	-1178
gs	-1179
ail	-1180
ase	-1181
ife	-1182
imp	-1183
Well	-1184
aged	-1185
ever	-1186
land	-1187
vers	-1188
▁Bou	-1189
▁Mar	-1190
▁law	-1191
ening	-1192
pping	-1193
écile	-1194
▁arms	-1195
▁batt	-1196
▁blue	-1197
▁both	-1198
▁does	-1199
▁feet	-1200
▁iron	-1201
▁sign	-1202
ashing	-1203
levard	-1204
▁Found	-1205
▁blood	-1206
▁faint	-1207
ountain	-1208
▁silence	-1209
▁Foundation	-1210
RE	-1211
_.	-1212
amp	-1213
cri	-1214
esc	-1215
vid	-1216
▁Fr	-1217
▁On	-1218
▁Un	-1219
aces	-1220
reet	-1221
ring	-1222
tern	-1223
that	-1224
▁ang	-1225
▁low	-1226
▁mus	-1227
▁ner	-1228
▁occ	-1229
▁res	-1230
▁sky	-1231
iness	-1232
▁Pres	-1233
▁drag	-1234
▁feel	-1235
▁forg	-1236
▁gave	-1237
▁home	-1238
▁pret	-1239
▁wall	-1240
▁whom	-1241
rought	-1242
▁later	-1243
▁woman	-1244
▁always	-1245
▁enough	-1246
▁motion	-1247
▁slowly	-1248
alentine	-1249
▁observed	-1250
▁repeated	-1251
▁returned	-1252
af	-1253
sh	-1254
Don	-1255
Not	-1256
aid	-1257
alm	-1258
ume	-1259
val	-1260
yed	-1261
ctor	-1262
iced	-1263
part	-1264
▁cut	-1265
▁led	-1266
▁opp	-1267
▁str	-1268
▁tri	-1269
anced	-1270
isted	-1271
▁draw	-1272
▁foot	-1273
▁inqu	-1274
▁lost	-1275
▁many	-1276
▁mean	-1277
▁pers	-1278
▁terr	-1279
▁thin	-1280
gether	-1281
iously	-1282
▁least	-1283
▁those	-1284
▁water	-1285
▁years	-1286
▁cannot	-1287
▁corner	-1288
▁except	-1289
▁seized	-1290
▁finished	-1291
▁fountain	-1292
▁beautiful	-1293
▁distribut	-1294
But	-1295
ats	-1296
ere	-1297
head	-1298
idge	-1299
iter	-1300
▁bas	-1301
▁cor	-1302
▁din	-1303
▁fog	-1304
▁sli	-1305
antly	-1306
fully	-1307
illed	-1308
where	-1309
▁agre	-1310
▁canv	-1311
▁fore	-1312
▁gent	-1313
▁move	-1314
▁need	-1315
▁pain	-1316
▁rece	-1317
▁scre	-1318
▁stro	-1319
▁walk	-1320
▁breat	-1321
▁stone	-1322
▁sweet	-1323
▁times	-1324
▁whole	-1325
▁letter	-1326
▁picked	-1327
▁pretty	-1328
▁square	-1329
▁brought	-1330
▁lighted	-1331
▁stopped	-1332
▁understand	-1333
br	-1334
ph	-1335
als	-1336
arp	-1337
mon	-1338
ses	-1339
umb	-1340
use	-1341
▁Dr	-1342
▁To	-1343
▁“_	-1344
aven	-1345
bour	-1346
cond	-1347
side	-1348
ston	-1349
ween	-1350
what	-1351
▁Arc	-1352
▁Mon	-1353
▁act	-1354
▁bay	-1355
▁big	-1356
▁few	-1357
▁kne	-1358
▁mir	-1359
▁sig	-1360
itted	-1361
ushed	-1362
▁From	-1363
▁book	-1364
▁dear	-1365
▁hold	-1366
▁moor	-1367
▁neck	-1368
▁pale	-1369
▁past	-1370
▁reco	-1371
▁resp	-1372
▁side	-1373
▁soul	-1374
▁stra	-1375
▁thro	-1376
▁week	-1377
ission	-1378
▁chair	-1379
▁cloud	-1380
▁court	-1381
▁horse	-1382
▁music	-1383
▁terms	-1384
▁trees	-1385
▁States	-1386
▁Street	-1387
▁United	-1388
▁become	-1389
▁disapp	-1390
▁garden	-1391
▁second	-1392
▁sighed	-1393
▁stairs	-1394
▁strang	-1395
▁between	-1396
▁touched	-1397
▁demanded	-1398
▁gardener	-1399
;—	-1400
LL	-1401
▁(	-1402
How	-1403
ane	-1404
lem	-1405
med	-1406
ois	-1407
ute	-1408
▁Be	-1409
▁My	-1410
▁du	-1411
▁ed	-1412
fted	-1413
ging	-1414
igne	-1415
rows	-1416
umed	-1417
▁cab	-1418
▁def	-1419
▁yes	-1420
ative	-1421
ierge	-1422
▁best	-1423
▁ceas	-1424
▁coll	-1425
▁hard	-1426
▁help	-1427
▁incl	-1428
▁late	-1429
▁perm	-1430
▁prot	-1431
▁true	-1432
▁whis	-1433
ention	-1434
itting	-1435
▁being	-1436
▁close	-1437
▁moved	-1438
▁tried	-1439
attered	-1440
▁Cécile	-1441
▁answer	-1442
▁breast	-1443
▁canvas	-1444
▁closed	-1445
▁glance	-1446
▁others	-1447
▁silver	-1448
▁changed	-1449
▁flowers	-1450
▁hurried	-1451
▁outside	-1452
▁smiling	-1453
▁listened	-1454
▁together	-1455
▁concierge	-1456
do	-1457
of	-1458
aff	-1459
aim	-1460
ean	-1461
gan	-1462
its	-1463
sel	-1464
und	-1465
uth	-1466
aper	-1467
cret	-1468
iled	-1469
▁Rep	-1470
▁bur	-1471
▁bus	-1472
▁cir	-1473
▁fat	-1474
▁fig	-1475
▁gro	-1476
▁inv	-1477
▁sal	-1478
▁smo	-1479
▁sub	-1480
▁vis	-1481
cript	-1482
tered	-1483
▁calm	-1484
▁deep	-1485
▁free	-1486
▁grey	-1487
▁grow	-1488
▁hour	-1489
▁kept	-1490
▁kiss	-1491
▁live	-1492
ection	-1493
inging	-1494
vering	-1495
▁clear	-1496
▁knows	-1497
▁mount	-1498
▁sharp	-1499
▁short	-1500
▁since	-1501
▁state	-1502
▁steps	-1503
▁words	-1504
▁caught	-1505
▁doctor	-1506
▁figure	-1507
▁rolled	-1508
▁country	-1509
▁decided	-1510
▁dropped	-1511
▁noticed	-1512
▁quietly	-1513
▁appeared	-1514
▁inquired	-1515
▁straight	-1516
▁thoughts	-1517
▁Boulevard	-1518
▁Valentine	-1519
▁copyright	-1520
Do	-1521
ER	-1522
Is	-1523
TM	-1524
avy	-1525
eks	-1526
ict	-1527
ins	-1528
rop	-1529
▁Is	-1530
▁Sc	-1531
▁wo	-1532
ably	-1533
ants	-1534
asse	-1535
atin	-1536
imes	-1537
ison	-1538
▁adv	-1539
▁cig	-1540
▁det	-1541
▁dou	-1542
▁fam	-1543
▁hon	-1544
▁ill	-1545
▁min	-1546
▁mon	-1547
▁sir	-1548
ocked	-1549
owing	-1550
▁done	-1551
▁fair	-1552
▁fear	-1553
▁leav	-1554
▁sett	-1555
▁sort	-1556
ertain	-1557
ssible	-1558
▁aston	-1559
▁charm	-1560
▁doors	-1561
▁heavy	-1562
▁model	-1563
▁organ	-1564
▁smoke	-1565
▁breath	-1566
▁colour	-1567
▁ground	-1568
▁things	-1569
▁terrace	-1570
▁anything	-1571
▁muttered	-1572
▁shoulder	-1573
▁sunlight	-1574
▁Presently	-1575
▁agreement	-1576
RA	-1577
We	-1578
uc	-1579
ug	-1580
der	-1581
ffe	-1582
ili	-1583
omp	-1584
ual	-1585
▁Bl	-1586
▁Go	-1587
They	-1588
arch	-1589
arer	-1590
ical	-1591
idly	-1592
ires	-1593
lend	-1594
rowd	-1595
sted	-1596
▁God	-1597
▁Mad	-1598
▁dev	-1599
▁mis	-1600
▁nur	-1601
▁pal	-1602
▁rub	-1603
▁tal	-1604
▁try	-1605
▁vag	-1606
▁vol	-1607
There	-1608
arent	-1609
ested	-1610
ethal	-1611
ments	-1612
ublic	-1613
▁Arch	-1614
▁With	-1615
▁cons	-1616
▁cost	-1617
▁form	-1618
▁gall	-1619
▁high	-1620
▁imag	-1621
▁mass	-1622
▁repl	-1623
▁stir	-1624
▁sure	-1625
▁tear	-1626
▁wand	-1627
eneral	-1628
morrow	-1629
though	-1630
▁Latin	-1631
▁Vance	-1632
▁bread	-1633
▁broke	-1634
▁crowd	-1635
▁human	-1636
▁quest	-1637
▁river	-1638
▁sight	-1639
▁study	-1640
▁tired	-1641
▁wheel	-1642
▁whose	-1643
▁Lethal	-1644
▁became	-1645
▁bridge	-1646
▁bright	-1647
▁person	-1648
▁Chamber	-1649
▁offered	-1650
▁perhaps	-1651
▁reached	-1652
▁stepped	-1653
▁support	-1654
▁speaking	-1655
ady	-1656
ais	-1657
any	-1658
arc	-1659
ask	-1660
dle	-1661
erm	-1662
ief	-1663
now	-1664
ork	-1665
ram	-1666
unt	-1667
▁An	-1668
▁No	-1669
▁af	-1670
▁vi	-1671
ages	-1672
aret	-1673
ason	-1674
empt	-1675
enty	-1676
fort	-1677
ient	-1678
noon	-1679
noun	-1680
raph	-1681
resh	-1682
ster	-1683
ulpt	-1684
vous	-1685
▁abs	-1686
▁aff	-1687
▁dam	-1688
▁die	-1689
▁exc	-1690
▁ide	-1691
▁mil	-1692
▁pay	-1693
▁sad	-1694
Where	-1695
ident	-1696
osite	-1697
ousin	-1698
ssing	-1699
umber	-1700
▁That	-1701
▁bent	-1702
▁clot	-1703
▁comm	-1704
▁disc	-1705
▁dull	-1706
▁eart	-1707
▁four	-1708
▁hair	-1709
▁hall	-1710
▁hast	-1711
▁hope	-1712
▁land	-1713
▁paid	-1714
▁play	-1715
▁prov	-1716
▁sold	-1717
ession	-1718
itated	-1719
▁Seine	-1720
▁bowed	-1721
▁crown	-1722
▁glass	-1723
▁hours	-1724
▁paint	-1725
▁watch	-1726
▁Govern	-1727
▁cannon	-1728
▁ceased	-1729
▁coming	-1730
▁cousin	-1731
▁either	-1732
▁filled	-1733
▁fright	-1734
▁lifted	-1735
▁mirror	-1736
▁sculpt	-1737
▁splend	-1738
▁wonder	-1739
▁crossed	-1740
▁delight	-1741
▁herself	-1742
▁slipped	-1743
▁sounded	-1744
▁laughing	-1745
▁opposite	-1746
▁standing	-1747
▁troubled	-1748
▁afternoon	-1749
▁GutenbergTM	-1750
EN	-1751
If	-1752
OU	-1753
Th	-1754
du	-1755
Are	-1756
For	-1757
ape	-1758
asp	-1759
ces	-1760
ift	-1761
ios	-1762
not	-1763
ots	-1764
rew	-1765
ump	-1766
vel	-1767
▁Al	-1768
▁Gu	-1769
▁II	-1770
▁sy	-1771
Come	-1772
ches	-1773
icem	-1774
ield	-1775
ines	-1776
inet	-1777
lies	-1778
like	-1779
oney	-1780
ooks	-1781
rupt	-1782
ssed	-1783
utes	-1784
uxem	-1785
▁New	-1786
▁Why	-1787
▁ask	-1788
▁boy	-1789
▁esc	-1790
▁lim	-1791
▁mad	-1792
▁thr	-1793
▁van	-1794
ashed	-1795
bourg	-1796
eanne	-1797
iding	-1798
iment	-1799
ining	-1800
iting	-1801
itten	-1802
ought	-1803
venue	-1804
▁Cast	-1805
▁Sign	-1806
▁burn	-1807
▁chap	-1808
▁circ	-1809
▁dang	-1810
▁else	-1811
▁exam	-1812
▁fast	-1813
▁fing	-1814
▁fled	-1815
▁fool	-1816
▁gest	-1817
▁laid	-1818
▁maid	-1819
▁pure	-1820
▁self	-1821
▁serv	-1822
▁stat	-1823
▁used	-1824
▁warm	-1825
artman	-1826
icense	-1827
▁Luxem	-1828
▁added	-1829
▁bayon	-1830
▁crept	-1831
▁death	-1832
▁earth	-1833
▁forth	-1834
▁paper	-1835
▁quick	-1836
▁shoot	-1837
▁shout	-1838
iterary	-1839
▁cheeks	-1840
▁includ	-1841
▁nearer	-1842
▁rather	-1843
▁strugg	-1844
▁taking	-1845
▁throat	-1846
▁yellow	-1847
▁gesture	-1848
▁nervous	-1849
▁passing	-1850
▁policem	-1851
▁whether	-1852
▁although	-1853
▁students	-1854
▁suddenly	-1855
▁Luxembourg	-1856
Ah	-1857
ON	-1858
ec	-1859
ey	-1860
ib	-1861
og	-1862
ads	-1863
ech	-1864
eed	-1865
ian	-1866
iew	-1867
ium	-1868
ned	-1869
noc	-1870
onn	-1871
pit	-1872
pri	-1873
ric	-1874
sed	-1875
ult	-1876
▁Do	-1877
▁eB	-1878
▁oh	-1879
aden	-1880
ades	-1881
agon	-1882
aped	-1883
azed	-1884
erse	-1885
lish	-1886
long	-1887
orth	-1888
raid	-1889
ular	-1890
▁How	-1891
▁One	-1892
▁ack	-1893
▁box	-1894
▁	-1895
e	-1896
t	-1897
a	-1898
o	-1899
n	-1900
i	-1901
h	-1902
s	-1903
r	-1904
d	-1905
l	-1906
u	-1907
m	-1908
c	-1909
w	-1910
g	-1911
f	-1912
,	-1913
y	-1914
p	-1915
b	-1916
.	-1917
k	-1918
v	-1919
I	-1920
“	-1921
”	-1922
T	-1923
’	-1924
H	-1925
S	-1926
A	-1927
-	-1928
C	-1929
W	-1930
—	-1931
B	-1932
?	-1933
M	-1934
!	-1935
E	-1936
x	-1937
P	-1938
F	-1939
R	-1940
;	-1941
q	-1942
G	-1943
_	-1944
O	-1945
L	-1946
j	-1947
Y	-1948
N	-1949
D	-1950
z	-1951
J	-1952
:	-1953
é	-1954
V	-1955
1	-1956
U	-1957
K	-1958
è	-1959
0	-1960
Q	-1961
*	-1962
9	-1963
‘	-1964
(	-1965
)	-1966
2	-1967
8	-1968
3	-1969
7	-1970
5	-1971
à	-1972
+	-1973
4	-1974
6	-1975
|	-1976
ç	-1977
ê	-1978
ô	-1979
$	-1980
/	-1981
É	-1982
â	-1983
œ	-1984
X	-1985
À	-1986
•	-1987
#	-1988
%	-1989
[	-1990
]	-1991
Ç	-1992
á	-1993
î	-1994
